{
  "version": "1.0",
  "truncation": null,
  "padding": null,
  "added_tokens": [
    {
      "id": 0,
      "content": "<pad>",
      "single_word": false,
      "lstrip": false,
      "rstrip": false,
      "normalized": false,
      "special": true
    },
    {
      "id": 1,
      "content": "<unk>",
      "single_word": false,
      "lstrip": false,
      "rstrip": false,
      "normalized": false,
      "special": true
    },
    {
      "id": 2,
      "content": "<bos>",
      "single_word": false,
      "lstrip": false,
      "rstrip": false,
      "normalized": false,
      "special": true
    },
    {
      "id": 3,
      "content": "<eos>",
      "single_word": false,
      "lstrip": false,
      "rstrip": false,
      "normalized": false,
      "special": true
    },
    {
      "id": 4,
      "content": "<sep>",
      "single_word": false,
      "lstrip": false,
      "rstrip": false,
      "normalized": false,
      "special": true
    }
  ],
  "normalizer": null,
  "pre_tokenizer": {
    "type": "ByteLevel",
    "add_prefix_space": false,
    "trim_offsets": true,
    "use_regex": true
  },
  "post_processor": null,
  "decoder": {
    "type": "ByteLevel",
    "add_prefix_space": true,
    "trim_offsets": true,
    "use_regex": true
  },
  "model": {
    "type": "BPE",
    "dropout": null,
    "unk_token": "<unk>",
    "continuing_subword_prefix": null,
    "end_of_word_suffix": null,
    "fuse_unk": false,
    "byte_fallback": false,
    "ignore_merges": false,
    "vocab": {
      "<pad>": 0,
      "<unk>": 1,
      "<bos>": 2,
      "<eos>": 3,
      "<sep>": 4,
      "!": 5,
      "\"": 6,
      "#": 7,
      "$": 8,
      "%": 9,
      "&": 10,
      "'": 11,
      "(": 12,
      ")": 13,
      "*": 14,
      "+": 15,
      ",": 16,
      "-": 17,
      ".": 18,
      "/": 19,
      "0": 20,
      "1": 21,
      "2": 22,
      "3": 23,
      "4": 24,
      "5": 25,
      "6": 26,
      "7": 27,
      "8": 28,
      "9": 29,
      ":": 30,
      ";": 31,
      "<": 32,
      "=": 33,
      ">": 34,
      "?": 35,
      "@": 36,
      "A": 37,
      "B": 38,
      "C": 39,
      "D": 40,
      "E": 41,
      "F": 42,
      "G": 43,
      "H": 44,
      "I": 45,
      "J": 46,
      "K": 47,
      "L": 48,
      "M": 49,
      "N": 50,
      "O": 51,
      "P": 52,
      "Q": 53,
      "R": 54,
      "S": 55,
      "T": 56,
      "U": 57,
      "V": 58,
      "W": 59,
      "X": 60,
      "Y": 61,
      "Z": 62,
      "[": 63,
      "\\": 64,
      "]": 65,
      "^": 66,
      "_": 67,
      "`": 68,
      "a": 69,
      "b": 70,
      "c": 71,
      "d": 72,
      "e": 73,
      "f": 74,
      "g": 75,
      "h": 76,
      "i": 77,
      "j": 78,
      "k": 79,
      "l": 80,
      "m": 81,
      "n": 82,
      "o": 83,
      "p": 84,
      "q": 85,
      "r": 86,
      "s": 87,
      "t": 88,
      "u": 89,
      "v": 90,
      "w": 91,
      "x": 92,
      "y": 93,
      "z": 94,
      "{": 95,
      "|": 96,
      "}": 97,
      "~": 98,
      "¡": 99,
      "¢": 100,
      "£": 101,
      "¤": 102,
      "¥": 103,
      "¦": 104,
      "§": 105,
      "¨": 106,
      "©": 107,
      "ª": 108,
      "«": 109,
      "¬": 110,
      "®": 111,
      "¯": 112,
      "°": 113,
      "±": 114,
      "²": 115,
      "³": 116,
      "´": 117,
      "µ": 118,
      "¶": 119,
      "·": 120,
      "¸": 121,
      "¹": 122,
      "º": 123,
      "»": 124,
      "¼": 125,
      "½": 126,
      "¾": 127,
      "¿": 128,
      "Â": 129,
      "Ã": 130,
      "Ä": 131,
      "Å": 132,
      "È": 133,
      "É": 134,
      "Ê": 135,
      "Ë": 136,
      "Ì": 137,
      "Í": 138,
      "Î": 139,
      "Ï": 140,
      "Ð": 141,
      "Ñ": 142,
      "Ò": 143,
      "Ö": 144,
      "×": 145,
      "Ø": 146,
      "à": 147,
      "á": 148,
      "â": 149,
      "ã": 150,
      "ä": 151,
      "å": 152,
      "æ": 153,
      "ç": 154,
      "è": 155,
      "é": 156,
      "ê": 157,
      "ï": 158,
      "ð": 159,
      "ô": 160,
      "Ć": 161,
      "ĉ": 162,
      "Ċ": 163,
      "Ę": 164,
      "Ġ": 165,
      "Ģ": 166,
      "ģ": 167,
      "Ĥ": 168,
      "ĥ": 169,
      "Ħ": 170,
      "ħ": 171,
      "Ĩ": 172,
      "ĩ": 173,
      "Ī": 174,
      "ī": 175,
      "Ĭ": 176,
      "ĭ": 177,
      "Į": 178,
      "į": 179,
      "İ": 180,
      "ı": 181,
      "Ĳ": 182,
      "ĳ": 183,
      "Ĵ": 184,
      "ĵ": 185,
      "Ķ": 186,
      "ķ": 187,
      "ĸ": 188,
      "Ĺ": 189,
      "ĺ": 190,
      "Ļ": 191,
      "ļ": 192,
      "Ľ": 193,
      "ľ": 194,
      "Ŀ": 195,
      "ŀ": 196,
      "Ł": 197,
      "ł": 198,
      "Ń": 199,
      "Ġt": 200,
      "Ġa": 201,
      "in": 202,
      "he": 203,
      "ĠÐ": 204,
      "re": 205,
      "Ð¾": 206,
      "on": 207,
      "Ġthe": 208,
      "Ġs": 209,
      "at": 210,
      "er": 211,
      "Ġc": 212,
      "Ðµ": 213,
      "or": 214,
      "nd": 215,
      "ÑĤ": 216,
      "ou": 217,
      "Ð°": 218,
      "ĠĠ": 219,
      "Ð¸": 220,
      "es": 221,
      "it": 222,
      "Ġw": 223,
      "en": 224,
      "is": 225,
      "an": 226,
      "Ġf": 227,
      "Ġp": 228,
      "ing": 229,
      "Ġo": 230,
      "Ġm": 231,
      "Ð¾Ð": 232,
      "Ġb": 233,
      "Ġto": 234,
      "Ñģ": 235,
      "al": 236,
      "Ġand": 237,
      "Ð½": 238,
      "ÑĢ": 239,
      "le": 240,
      "Ġd": 241,
      "Ġin": 242,
      "ar": 243,
      "Ġof": 244,
      "ic": 245,
      "ed": 246,
      "ion": 247,
      "ro": 248,
      "as": 249,
      "Ġth": 250,
      "Ġy": 251,
      "Ġh": 252,
      "Ġe": 253,
      "Ð»": 254,
      "Ġyou": 255,
      "Ġl": 256,
      "ct": 257,
      "om": 258,
      "us": 259,
      "ent": 260,
      "Ġre": 261,
      "Ġn": 262,
      "ve": 263,
      "et": 264,
      "Ñĥ": 265,
      "Ġis": 266,
      "Ðº": 267,
      "il": 268,
      "Ñĭ": 269,
      "im": 270,
      "Ġg": 271,
      "Ñı": 272,
      "ĠĠĠĠ": 273,
      "ow": 274,
      "Ð¼": 275,
      "ÑĮ": 276,
      "el": 277,
      "ĠI": 278,
      "st": 279,
      "Ġfor": 280,
      "ch": 281,
      "ra": 282,
      "Ġthat": 283,
      "Ġbe": 284,
      "id": 285,
      "ce": 286,
      "ot": 287,
      "Ð²": 288,
      "ol": 289,
      "ut": 290,
      "ation": 291,
      "ĠT": 292,
      "ĠÐ¿": 293,
      "ig": 294,
      "Ġon": 295,
      "ly": 296,
      "Ñĩ": 297,
      "Ġst": 298,
      "if": 299,
      "Ġit": 300,
      "am": 301,
      "ÑģÑĤ": 302,
      "ith": 303,
      "ay": 304,
      "Ð´": 305,
      "od": 306,
      "Ġan": 307,
      "ĠÐ²": 308,
      "ver": 309,
      "Ġpro": 310,
      "ul": 311,
      "Ġas": 312,
      "Ġcan": 313,
      "ĠÐ¸": 314,
      "un": 315,
      "Ġcon": 316,
      "ur": 317,
      "Ġwith": 318,
      "ĠÑģ": 319,
      "ĠA": 320,
      "Ġare": 321,
      "Ġor": 322,
      "se": 323,
      "ir": 324,
      "Ġus": 325,
      "ld": 326,
      "ge": 327,
      "ke": 328,
      "ĠÐ½": 329,
      "pe": 330,
      "ate": 331,
      "ad": 332,
      "Ð·": 333,
      "um": 334,
      "Ġex": 335,
      "Ġal": 336,
      "Ġwh": 337,
      "ÐµÐ½": 338,
      "Ġcom": 339,
      "ter": 340,
      "ĠĠĠ": 341,
      "qu": 342,
      "ÑĢÐ°": 343,
      "her": 344,
      "ĠS": 345,
      "Ð¾Ð²": 346,
      "ĠC": 347,
      "Ġyour": 348,
      "ab": 349,
      "ess": 350,
      "ist": 351,
      "ure": 352,
      "ers": 353,
      "Ġde": 354,
      "ant": 355,
      "ĠÐ¾": 356,
      "Ð¿": 357,
      "Ġhe": 358,
      "Ñħ": 359,
      "Ġha": 360,
      "ĠÐº": 361,
      "ould": 362,
      "ri": 363,
      "Ġv": 364,
      "ore": 365,
      "ere": 366,
      "th": 367,
      "ÐµÑĤ": 368,
      "out": 369,
      "op": 370,
      "Ð¹": 371,
      "'s": 372,
      "est": 373,
      "ity": 374,
      "em": 375,
      "Ġsu": 376,
      "ck": 377,
      "pl": 378,
      "ain": 379,
      "Ġne": 380,
      "igh": 381,
      "Ġ\"": 382,
      "ĠThe": 383,
      "ÑĤÐ¾": 384,
      "Ð±": 385,
      "ive": 386,
      "ĠÐ¼": 387,
      "Ġ(": 388,
      "Ñİ": 389,
      "ort": 390,
      "ment": 391,
      "ĠP": 392,
      "ill": 393,
      "Ð¾Ð»": 394,
      "ÑĤÑĮ": 395,
      "os": 396,
      "pt": 397,
      "ĠÐ´": 398,
      "ÑĤÐµ": 399,
      "nt": 400,
      "ÑĢÐµ": 401,
      "Ġch": 402,
      "ĠH": 403,
      "ies": 404,
      "Ġme": 405,
      "Ġr": 406,
      "ect": 407,
      "Ġle": 408,
      "Ġim": 409,
      "ĊĠĠĠ": 410,
      "ĠM": 411,
      "ple": 412,
      "Ð³": 413,
      "Ġhave": 414,
      "rom": 415,
      "Ġ1": 416,
      "Ġse": 417,
      "ome": 418,
      "Ð¾Ð¼": 419,
      "Ð½Ñĭ": 420,
      "Ġnot": 421,
      "ight": 422,
      "Ġby": 423,
      "Ð½Ð¾": 424,
      "iz": 425,
      "ions": 426,
      "Ð»Ð¸": 427,
      "Ġma": 428,
      "age": 429,
      "pp": 430,
      "ÑĢÐ¸": 431,
      "ine": 432,
      "ÑĪ": 433,
      "Ð½Ð¸": 434,
      "our": 435,
      "Ġdo": 436,
      "iv": 437,
      "Ġwor": 438,
      "Ġab": 439,
      "Ð¾Ð³": 440,
      "Ġsh": 441,
      "res": 442,
      "ud": 443,
      "ide": 444,
      "ĠD": 445,
      "ial": 446,
      "Ġfrom": 447,
      "ĠW": 448,
      "ĠB": 449,
      "Ġu": 450,
      "and": 451,
      "Ġen": 452,
      "ical": 453,
      "Ġpl": 454,
      "per": 455,
      "Ġint": 456,
      "Ð°Ðº": 457,
      "Ð¾Ð´": 458,
      "ĠE": 459,
      "ĠÐ½Ð°": 460,
      "Ġ=": 461,
      "all": 462,
      "act": 463,
      "ĠĠĠĠĠĠĠĠ": 464,
      "ell": 465,
      "ther": 466,
      "art": 467,
      "Ġwe": 468,
      "ÑĨ": 469,
      "ĠF": 470,
      "ĠG": 471,
      "Ġ-": 472,
      "Ġthis": 473,
      "Ð¶": 474,
      "og": 475,
      "oc": 476,
      "ust": 477,
      "ĠR": 478,
      "ame": 479,
      "ĠÐ±": 480,
      "ich": 481,
      "able": 482,
      "ÐµÐ½Ð¸": 483,
      "Ġat": 484,
      "orm": 485,
      "ĠÑĩ": 486,
      "Ġk": 487,
      "Ġli": 488,
      "``": 489,
      "are": 490,
      "ile": 491,
      "Ġad": 492,
      "Ð¾Ð¹": 493,
      "ĠL": 494,
      "ard": 495,
      "ag": 496,
      "cl": 497,
      "Ġmore": 498,
      "ult": 499,
      "ĠÑ": 500,
      "ry": 501,
      "ĠÑĤ": 502,
      "Ġcont": 503,
      "ind": 504,
      "rou": 505,
      "The": 506,
      "Ġ2": 507,
      "Ġres": 508,
      "Ġcomp": 509,
      "ue": 510,
      "Ġimp": 511,
      "Ġwhich": 512,
      "ations": 513,
      "Ġother": 514,
      "ff": 515,
      "Ġwill": 516,
      "ase": 517,
      "Ġun": 518,
      "Ġsome": 519,
      "Ġte": 520,
      "ĠÐ½Ðµ": 521,
      "his": 522,
      "Ġtheir": 523,
      "Ġwas": 524,
      "Ġuse": 525,
      "so": 526,
      "Ġall": 527,
      "Ġcre": 528,
      "Ð¾Ð¶": 529,
      "ction": 530,
      "ps": 531,
      "--": 532,
      "ie": 533,
      "king": 534,
      "ÐµÑĢ": 535,
      "hat": 536,
      "form": 537,
      "ÑģÐº": 538,
      "cess": 539,
      "ĠO": 540,
      "ime": 541,
      "Ġwhe": 542,
      "gh": 543,
      "ack": 544,
      "Ġqu": 545,
      "ĠÐ·": 546,
      "ble": 547,
      "ang": 548,
      "ans": 549,
      "vel": 550,
      "Ġdat": 551,
      "Ġhel": 552,
      "ces": 553,
      "ost": 554,
      "Ð»ÑĮ": 555,
      "Ð½Ð°": 556,
      "Ġgo": 557,
      "ire": 558,
      "Ġmod": 559,
      "iff": 560,
      "ite": 561,
      "Ġwould": 562,
      "ĠÑĥ": 563,
      "Ġsc": 564,
      "ÑģÑı": 565,
      "Ġbut": 566,
      "ÑĢÐ¾": 567,
      "ence": 568,
      "Ġany": 569,
      "Ñī": 570,
      "Ġif": 571,
      "Ð»Ð°": 572,
      "Ġhas": 573,
      "Ġso": 574,
      "Ġspe": 575,
      "Ġcl": 576,
      "ous": 577,
      "Ġj": 578,
      "ance": 579,
      "ice": 580,
      "ĠN": 581,
      "ks": 582,
      "ong": 583,
      "Ġsuch": 584,
      "ated": 585,
      "ÑĤÐ¸": 586,
      "âĢ": 587,
      "ach": 588,
      "Ð¾Ð±": 589,
      "Ð¾Ð½": 590,
      "Ġabout": 591,
      "Ġfe": 592,
      "du": 593,
      "Ð»Ñı": 594,
      "oo": 595,
      "Ġdiff": 596,
      "Ġtra": 597,
      "ast": 598,
      "00": 599,
      "Ġmy": 600,
      "Ġhelp": 601,
      "Ġman": 602,
      "ass": 603,
      "ĠThis": 604,
      "ign": 605,
      "ÐµÐ¼": 606,
      "Ġsy": 607,
      "Ð²Ð°": 608,
      "xt": 609,
      "ac": 610,
      "ory": 611,
      "Ġthey": 612,
      "ĠU": 613,
      "Ġlike": 614,
      "Ġac": 615,
      "ual": 616,
      "ific": 617,
      "ary": 618,
      "now": 619,
      "Ġalso": 620,
      "int": 621,
      "ap": 622,
      "ace": 623,
      "av": 624,
      "ĠÑį": 625,
      "ber": 626,
      "Ġout": 627,
      "one": 628,
      "Ġmay": 629,
      "Ġro": 630,
      "Ġhow": 631,
      "ĊĠĠĠĠ": 632,
      "ition": 633,
      "Ġcomm": 634,
      "Ġneed": 635,
      "ram": 636,
      "Ġdata": 637,
      "clud": 638,
      "Ġup": 639,
      "Ġar": 640,
      "end": 641,
      "ode": 642,
      "ĠÑĢÐ°": 643,
      "ÑĨÐ¸": 644,
      "ĠIt": 645,
      "Ġthere": 646,
      "Ġpre": 647,
      "ient": 648,
      "Ð¾Ð²Ð°": 649,
      "Ġprov": 650,
      "Ð¾Ð»ÑĮ": 651,
      "Ġev": 652,
      "Ġthem": 653,
      "You": 654,
      "lo": 655,
      "ep": 656,
      "ject": 657,
      "ru": 658,
      "Ð¼Ð¸": 659,
      "Ġknow": 660,
      "Ġdis": 661,
      "Ġtime": 662,
      "Ð´Ð°": 663,
      "ress": 664,
      "nder": 665,
      "Ġexam": 666,
      "Ð¾Ð³Ð¾": 667,
      "Ġone": 668,
      "ÑĢÑĥ": 669,
      "Ġfun": 670,
      "Ð¾ÑĤ": 671,
      "etw": 672,
      "Ġcons": 673,
      "ord": 674,
      "Ġits": 675,
      "Ġcould": 676,
      "Ġused": 677,
      "Ġinclud": 678,
      "stem": 679,
      "ens": 680,
      "low": 681,
      "ĠIn": 682,
      "Ð¾ÑĢ": 683,
      "Ġusing": 684,
      "ail": 685,
      "Ġdiffere": 686,
      "con": 687,
      "Ġmake": 688,
      "Ġper": 689,
      "ÐºÐ°": 690,
      "ÑģÑĤÐ²": 691,
      "ĠJ": 692,
      "ics": 693,
      "ely": 694,
      "Ġdes": 695,
      "ning": 696,
      "ors": 697,
      "ĠÐ»": 698,
      "ake": 699,
      "ft": 700,
      "Ġover": 701,
      "Ġ3": 702,
      "Ġwhat": 703,
      "Ġam": 704,
      "ount": 705,
      "Ġinto": 706,
      "'t": 707,
      "Ġnew": 708,
      "ĠÐ¾Ð±": 709,
      "Ġspec": 710,
      "com": 711,
      "ari": 712,
      "Ġtr": 713,
      "Ġsp": 714,
      "ating": 715,
      "ĊĠ": 716,
      "Ġsystem": 717,
      "ĠÐ·Ð°": 718,
      "```": 719,
      "..": 720,
      "ater": 721,
      "ĠÐ°": 722,
      "Ġmodel": 723,
      "put": 724,
      "ÐµÐ¹": 725,
      "ĠÐ³": 726,
      "ize": 727,
      "ÑģÑĤÐ°": 728,
      "ub": 729,
      "ener": 730,
      "Ġnum": 731,
      "ĠÐ¾ÑĤ": 732,
      "pen": 733,
      "ak": 734,
      "Ġway": 735,
      "erm": 736,
      "ally": 737,
      "Ġinter": 738,
      "ÑĤÐ°": 739,
      "Ġimport": 740,
      "very": 741,
      "eth": 742,
      "led": 743,
      "In": 744,
      "Ġpe": 745,
      "ful": 746,
      "ular": 747,
      "ÑĩÐµ": 748,
      "Ġser": 749,
      "Ġcol": 750,
      "Ġcode": 751,
      "ĠÐ²Ñĭ": 752,
      "ÑģÑĤÐ¸": 753,
      "Ġshould": 754,
      "ĊĠĠĠĠĠĠĠ": 755,
      "ree": 756,
      "ings": 757,
      "ove": 758,
      "ÑĢÑĭ": 759,
      "Ġsim": 760,
      "Ġem": 761,
      "Ġke": 762,
      "ible": 763,
      "ÑĩÐ¸": 764,
      "Ġunder": 765,
      "ip": 766,
      "Ġap": 767,
      "ÑģÐ¿": 768,
      "ĠÐ¿ÑĢÐ¸": 769,
      "ature": 770,
      "aus": 771,
      "Ġset": 772,
      "ÐºÐ¸": 773,
      "ons": 774,
      "ÑĦ": 775,
      "ild": 776,
      "Ð¾Ðº": 777,
      "Ġadd": 778,
      "ish": 779,
      "Ġthese": 780,
      "Ġdifferent": 781,
      "ĠÐ¿Ð¾": 782,
      "Ġwho": 783,
      "ĠÑı": 784,
      "Ġexample": 785,
      "ĠÐµ": 786,
      "Ġpos": 787,
      "Ġ{": 788,
      "Ġapp": 789,
      "Ġhis": 790,
      "rit": 791,
      "ĠÑĩÑĤÐ¾": 792,
      "ates": 793,
      "ick": 794,
      "Ġwork": 795,
      "lect": 796,
      "velop": 797,
      "ments": 798,
      "Ġind": 799,
      "ÐµÐ½Ð¸Ñı": 800,
      "ange": 801,
      "ased": 802,
      "vers": 803,
      "ph": 804,
      "ents": 805,
      "Ġhum": 806,
      "Ġwant": 807,
      "ĠYou": 808,
      "ound": 809,
      "Ġget": 810,
      "angu": 811,
      "te": 812,
      "elf": 813,
      "ility": 814,
      "Ġval": 815,
      "Ġty": 816,
      "Ġpart": 817,
      "row": 818,
      "Ġthan": 819,
      "ear": 820,
      "ose": 821,
      "Ġfunction": 822,
      "ys": 823,
      "olog": 824,
      "What": 825,
      "Ð»Ðµ": 826,
      "Ġprog": 827,
      "Ð¾Ð·": 828,
      "Ġob": 829,
      "rib": 830,
      "Ġph": 831,
      "Ġrel": 832,
      "ll": 833,
      "Ġrequ": 834,
      "urn": 835,
      "Ġpr": 836,
      "Ġinst": 837,
      "Ġwhen": 838,
      "Ġplay": 839,
      "Ġmany": 840,
      "Ġgener": 841,
      "ÑģÐ¸": 842,
      "Ġeach": 843,
      "Ġlangu": 844,
      "Ġbu": 845,
      "les": 846,
      "ict": 847,
      "ower": 848,
      "ise": 849,
      "Ġstr": 850,
      "Ð¼Ð°": 851,
      "Ġact": 852,
      "Ġ|": 853,
      "Ġpers": 854,
      "ia": 855,
      "ough": 856,
      "ople": 857,
      "ne": 858,
      "()": 859,
      "Ġexpl": 860,
      "rough": 861,
      "ĠÐ±Ñĭ": 862,
      "Ġ*": 863,
      "Ġlear": 864,
      "Ð½ÑĭÑħ": 865,
      "Ð²Ð¸": 866,
      "ÑĩÐ°": 867,
      "ĠÐºÐ¾": 868,
      "Ġdet": 869,
      "Ġno": 870,
      "ÑĢÐµÐ´": 871,
      "Ġdevelop": 872,
      "ĠÐ¿ÑĢÐ¾": 873,
      "\",": 874,
      "Ñĳ": 875,
      "Ġeff": 876,
      "Ġfol": 877,
      "Ġcreate": 878,
      "round": 879,
      "get": 880,
      "tain": 881,
      "Ġimportant": 882,
      "irst": 883,
      "Ġsm": 884,
      "ĠÐ¸Ð·": 885,
      "een": 886,
      "cur": 887,
      "ef": 888,
      "ages": 889,
      "ities": 890,
      "ript": 891,
      "reat": 892,
      "ĠHow": 893,
      "ever": 894,
      "ĠÐºÐ°Ðº": 895,
      "yth": 896,
      "ĠSt": 897,
      "ss": 898,
      "ative": 899,
      "Ġvari": 900,
      "Ġpeople": 901,
      "Ġexper": 902,
      "ience": 903,
      "Ġmost": 904,
      "Ġwhere": 905,
      "etween": 906,
      "Ġbetween": 907,
      "ĠV": 908,
      "als": 909,
      "ov": 910,
      "ood": 911,
      "Ġform": 912,
      "cre": 913,
      "Ġprocess": 914,
      "Ġinv": 915,
      "Ð¾Ð¿": 916,
      "ÑģÑĤÑĮ": 917,
      "//": 918,
      "ting": 919,
      "Ġtw": 920,
      "Ġstart": 921,
      "Ġmat": 922,
      "pend": 923,
      "gg": 924,
      "Ġprovide": 925,
      "oth": 926,
      "ark": 927,
      "tern": 928,
      "Ġ'": 929,
      "Ġthen": 930,
      "ĠK": 931,
      "ĠIf": 932,
      "lease": 933,
      "stand": 934,
      "ĠAI": 935,
      "Ġcal": 936,
      "Ġinform": 937,
      "Ġass": 938,
      "Ġbec": 939,
      "Ġra": 940,
      "ÐµÐ»": 941,
      "own": 942,
      "chn": 943,
      "Ġworld": 944,
      "ware": 945,
      "ĠÐ¼Ð¾Ð¶": 946,
      "ĠÑĤÐµ": 947,
      "Ġfind": 948,
      "Ġlist": 949,
      "ife": 950,
      "Ð½ÑĭÐµ": 951,
      "ĠÑĤÐ°Ðº": 952,
      "ĊĠĠĠĠĠĠĠĠ": 953,
      "Ġthrough": 954,
      "ÑĪÐ¸": 955,
      "Ð·Ð°": 956,
      "Ġoff": 957,
      "Ġreg": 958,
      "Ġcur": 959,
      "Ð³Ð¾": 960,
      "ause": 961,
      "ÑĥÑİ": 962,
      "ook": 963,
      "ython": 964,
      "Ġchar": 965,
      "Ġpo": 966,
      "ten": 967,
      "Ġco": 968,
      "rite": 969,
      "----": 970,
      "Ġbeen": 971,
      "Ġfollow": 972,
      "Ġcomple": 973,
      "Ġ4": 974,
      "ĠÐ´Ð»Ñı": 975,
      "Ġprogram": 976,
      "wn": 977,
      "Ġ`": 978,
      "Ġcomput": 979,
      "Ġlanguage": 980,
      "Ġquest": 981,
      ").": 982,
      "arch": 983,
      "ious": 984,
      "Ġperson": 985,
      "Ð½Ð¾Ð¹": 986,
      "Ġ.": 987,
      "ds": 988,
      "Ð½Ðµ": 989,
      "Ġ<": 990,
      "ĠÐºÐ¾ÑĤÐ¾": 991,
      ");": 992,
      "ices": 993,
      "Ġgame": 994,
      "Ġtechn": 995,
      "ĊĊĠĠĠ": 996,
      "ĠÑĢÐ°Ð·": 997,
      "Ġunderstand": 998,
      "ced": 999,
      "Ġ5": 1000,
      "Ġsol": 1001,
      "Ġjust": 1002,
      "bs": 1003,
      "Ġwell": 1004,
      "ract": 1005,
      "its": 1006,
      "Ġwhile": 1007,
      "ĠÑĦ": 1008,
      "Ġlar": 1009,
      "Ġtwo": 1010,
      "Ġdef": 1011,
      "Ġche": 1012,
      "Ġfirst": 1013,
      "ays": 1014,
      "ib": 1015,
      "ential": 1016,
      "Ġgood": 1017,
      "ÑĩÐµÑģÐº": 1018,
      "Ġadv": 1019,
      "Ġtrans": 1020,
      "plic": 1021,
      "cy": 1022,
      "hes": 1023,
      "Ġfl": 1024,
      "Ġatt": 1025,
      "ink": 1026,
      "Ġinformation": 1027,
      "ath": 1028,
      "ruct": 1029,
      "ĠÐ²Ð°": 1030,
      "Ġrun": 1031,
      "Ġprodu": 1032,
      "Ġdist": 1033,
      "Ġnumber": 1034,
      "Ð´Ð¸": 1035,
      "Ġrep": 1036,
      "Ġdoes": 1037,
      "Ð´Ðµ": 1038,
      "ms": 1039,
      "ng": 1040,
      "pect": 1041,
      "Ġtrain": 1042,
      "read": 1043,
      "ĠÑģÐ²": 1044,
      "Ġconsid": 1045,
      "ĠÑĢÐµ": 1046,
      "ality": 1047,
      "Ġspecific": 1048,
      "),": 1049,
      "Ġwere": 1050,
      "oy": 1051,
      "Ð°Ð½": 1052,
      "Ġhuman": 1053,
      "Ġonly": 1054,
      "ÐµÐ½Ð¸Ðµ": 1055,
      "Ġposs": 1056,
      "ĠÐĴ": 1057,
      "Ġhigh": 1058,
      "How": 1059,
      "Ġsa": 1060,
      "ural": 1061,
      "Ġrec": 1062,
      "Ġret": 1063,
      "ues": 1064,
      "Ġinf": 1065,
      "ows": 1066,
      "Ġrem": 1067,
      "Ġtext": 1068,
      "Ġav": 1069,
      "cept": 1070,
      "Ġresp": 1071,
      "ving": 1072,
      "Ð¾Ñģ": 1073,
      "Ġref": 1074,
      "Ġincluding": 1075,
      "Ð¸Ñħ": 1076,
      "ork": 1077,
      "hen": 1078,
      "der": 1079,
      "Ġag": 1080,
      "ÑģÑĤÐ¾": 1081,
      "pport": 1082,
      "tt": 1083,
      "ution": 1084,
      "Ð¸Ð¼": 1085,
      "ĠÐ¿ÑĢ": 1086,
      "Ġopt": 1087,
      "ĠÐ¶": 1088,
      "ĠâĢ": 1089,
      "Ð¸Ðµ": 1090,
      "nce": 1091,
      "Ð½Ð¾Ð³Ð¾": 1092,
      "ÑĤÐµÐ»ÑĮ": 1093,
      "ian": 1094,
      "Ġpower": 1095,
      "Ġfile": 1096,
      "ify": 1097,
      "ized": 1098,
      "rent": 1099,
      "Ð½ÑĭÐ¹": 1100,
      "Ġfact": 1101,
      "ource": 1102,
      "ĠÑįÑĤÐ¾": 1103,
      "ÐºÐ¾": 1104,
      "Ġresult": 1105,
      "'m": 1106,
      "Ġmeth": 1107,
      "Ġ[": 1108,
      "Ġmin": 1109,
      "Ġ+": 1110,
      "Ġgra": 1111,
      "ically": 1112,
      "ÐµÑĤÑģÑı": 1113,
      "iqu": 1114,
      "eg": 1115,
      "ness": 1116,
      "Ġtry": 1117,
      "ĠFor": 1118,
      "gor": 1119,
      "Ġback": 1120,
      "Ġtake": 1121,
      "ered": 1122,
      "Ġsk": 1123,
      "eng": 1124,
      "Ġlife": 1125,
      "Ġpop": 1126,
      "dd": 1127,
      "ÑİÑĤ": 1128,
      "Ġkey": 1129,
      "uring": 1130,
      "ĠHowever": 1131,
      "Ġbest": 1132,
      "Ġsign": 1133,
      "Ġ20": 1134,
      "Ġ0": 1135,
      "Ġopen": 1136,
      "Ġcharact": 1137,
      "ex": 1138,
      "Ð½Ð¸Ñı": 1139,
      "**": 1140,
      "fore": 1141,
      "ody": 1142,
      "Ġour": 1143,
      "Ð¾Ð»ÑĮÐ·": 1144,
      "erg": 1145,
      "ĠÐ¸Ð»Ð¸": 1146,
      "ob": 1147,
      "Ġmain": 1148,
      "ÑĥÑĤ": 1149,
      "sw": 1150,
      "Ġpol": 1151,
      "Ġlong": 1152,
      "Ġmethod": 1153,
      "Ġown": 1154,
      "Ġprovid": 1155,
      "Ġsub": 1156,
      "Ġfil": 1157,
      "Ġbeing": 1158,
      "ax": 1159,
      "ÐºÑĥ": 1160,
      "Ġsee": 1161,
      "Ġdon": 1162,
      "ines": 1163,
      "cript": 1164,
      "port": 1165,
      "Ġclass": 1166,
      "Ġplan": 1167,
      "Ġ$": 1168,
      "ÑħÐ¾Ð´": 1169,
      "old": 1170,
      "iew": 1171,
      "Ġfi": 1172,
      "Ġlight": 1173,
      "uch": 1174,
      "ves": 1175,
      "red": 1176,
      "ĠCh": 1177,
      "Ġlet": 1178,
      "ety": 1179,
      "Ġdesign": 1180,
      "Ġhand": 1181,
      "Ð¼Ðµ": 1182,
      "Ġdown": 1183,
      "Ġloc": 1184,
      "ade": 1185,
      "Ġdepend": 1186,
      "Ġperform": 1187,
      "Ġbuild": 1188,
      "Ġbased": 1189,
      "ĠHe": 1190,
      "Ġcor": 1191,
      "gorith": 1192,
      "Ġins": 1193,
      "Ġart": 1194,
      "Ġappro": 1195,
      "ĠÐ¸Ð½": 1196,
      "Ġexp": 1197,
      "Ġpossible": 1198,
      "ĠHere": 1199,
      "Ġtyp": 1200,
      "Ġimpro": 1201,
      "ved": 1202,
      "Ġ10": 1203,
      "Ġgu": 1204,
      "ather": 1205,
      "other": 1206,
      "Ġproble": 1207,
      "Ġevery": 1208,
      "ures": 1209,
      "ÐµÐº": 1210,
      "Ġide": 1211,
      "ron": 1212,
      "Ġrequire": 1213,
      "Ġi": 1214,
      "line": 1215,
      "Ġbel": 1216,
      "ĠÐ¿Ð¾Ð´": 1217,
      "Ġstud": 1218,
      "Ġpoint": 1219,
      "Ġ}": 1220,
      "ited": 1221,
      "Ġobject": 1222,
      "Ġyear": 1223,
      "Ġdec": 1224,
      "mat": 1225,
      "hed": 1226,
      "Ġgive": 1227,
      "Ġ6": 1228,
      "ÑīÐµ": 1229,
      "Ġsoc": 1230,
      "iron": 1231,
      "Ð·Ñĭ": 1232,
      "Ġansw": 1233,
      "Ġmean": 1234,
      "Ġlead": 1235,
      "ern": 1236,
      "Ġcommun": 1237,
      "ied": 1238,
      "ward": 1239,
      "Ġ/": 1240,
      "ien": 1241,
      "ĠÐ¸ÑģÐ¿": 1242,
      "etter": 1243,
      "Ġinclude": 1244,
      "Ġ19": 1245,
      "Ġvalue": 1246,
      "Ġste": 1247,
      "Ġsmall": 1248,
      "ĠÑģÐ¾": 1249,
      "Ġeng": 1250,
      "Ġreturn": 1251,
      "ples": 1252,
      "20": 1253,
      "Ġla": 1254,
      "'re": 1255,
      "ĠÑħ": 1256,
      "Ġwater": 1257,
      "Ġel": 1258,
      "ÑģÑĮ": 1259,
      "nect": 1260,
      "Ġalgorith": 1261,
      "ology": 1262,
      "Ġmed": 1263,
      "Ġhad": 1264,
      "âĢĻ": 1265,
      "up": 1266,
      "vent": 1267,
      "Ġsoft": 1268,
      "Ġfeel": 1269,
      "):": 1270,
      "Ġent": 1271,
      "Ġacc": 1272,
      "Ġterm": 1273,
      "ĠÐŁ": 1274,
      "ming": 1275,
      "ÑĤÑĮÑģÑı": 1276,
      "ĠÐºÐ¾ÑĤÐ¾ÑĢÑĭ": 1277,
      "Ġright": 1278,
      "Ġinput": 1279,
      "Ð¸Ð·": 1280,
      "cul": 1281,
      "Ġext": 1282,
      "Ġlarge": 1283,
      "ank": 1284,
      "Ð»Ñĥ": 1285,
      "Ġeven": 1286,
      "fter": 1287,
      "ÐĴ": 1288,
      "Ġboth": 1289,
      "Ġeas": 1290,
      "Ġconf": 1291,
      "ism": 1292,
      "alth": 1293,
      "Ġmight": 1294,
      "Ġpot": 1295,
      "Ð´Ñĥ": 1296,
      "Ð¶Ðµ": 1297,
      "ÐµÑĢÐµ": 1298,
      "ars": 1299,
      "ÑģÐµ": 1300,
      "ĠÐ¿Ð¾Ð»": 1301,
      "ĠÐºÐ°": 1302,
      "It": 1303,
      "Ð¼ÐµÐ½": 1304,
      "ĠUn": 1305,
      "ĠWhat": 1306,
      "cial": 1307,
      "Ġincre": 1308,
      "any": 1309,
      "Ð¸ÑĤ": 1310,
      "Ġbetter": 1311,
      "Ġcomplex": 1312,
      "Can": 1313,
      "Ġoften": 1314,
      "rain": 1315,
      "ĠÐ¼Ð¾Ð¶ÐµÑĤ": 1316,
      "Ġend": 1317,
      "ets": 1318,
      "inu": 1319,
      "Ġequ": 1320,
      "ĠÑģÑĤ": 1321,
      "Ġsur": 1322,
      "Ġcurrent": 1323,
      "ÐŁ": 1324,
      "ization": 1325,
      "Ġsom": 1326,
      "br": 1327,
      "ond": 1328,
      "ÑģÐ»Ð¸": 1329,
      "Ġmuch": 1330,
      "ources": 1331,
      "gan": 1332,
      "istant": 1333,
      "comm": 1334,
      "Ġher": 1335,
      "ertain": 1336,
      "ives": 1337,
      "ĠRe": 1338,
      "Ġreal": 1339,
      "atures": 1340,
      "ring": 1341,
      "ty": 1342,
      "ident": 1343,
      "self": 1344,
      "Ð²Ðµ": 1345,
      "Ġprom": 1346,
      "ivid": 1347,
      "riend": 1348,
      "To": 1349,
      "Ġbl": 1350,
      "Ġbecause": 1351,
      "Ġname": 1352,
      "ional": 1353,
      "Ð½ÑĭÐ¼": 1354,
      "io": 1355,
      "Ġnetw": 1356,
      "Ġlearning": 1357,
      "ts": 1358,
      "ĠÐ¼Ð°": 1359,
      "Ġmult": 1360,
      "Ġeffect": 1361,
      "Ġ#": 1362,
      "Ġsame": 1363,
      "Ġwrit": 1364,
      "Ġdire": 1365,
      "Ġhere": 1366,
      "Ġuser": 1367,
      "ĠĠĠĠĠĠĠĠĠĠĠĠĠĠĠĠ": 1368,
      "to": 1369,
      "Ġknown": 1370,
      "Ġtool": 1371,
      "Ð»Ð¾": 1372,
      "ily": 1373,
      "ÑĪÐµ": 1374,
      "ric": 1375,
      "ĠÐ¸ÑģÐ¿Ð¾Ð»ÑĮÐ·": 1376,
      "Ġproject": 1377,
      "Ġlearn": 1378,
      "Ġpopular": 1379,
      "Ġpar": 1380,
      "Ġdisc": 1381,
      "ĠÑģÐ¿": 1382,
      "Ġfin": 1383,
      "ĠOpen": 1384,
      "Ġread": 1385,
      "erest": 1386,
      "Ġsupport": 1387,
      "Ġaut": 1388,
      "Ġcount": 1389,
      "Ð°Ð»ÑĮ": 1390,
      "air": 1391,
      "viron": 1392,
      "ĠÐ¡": 1393,
      "resent": 1394,
      "ases": 1395,
      "ually": 1396,
      "Ġanswer": 1397,
      "Here": 1398,
      "ĠĊ": 1399,
      "Ġfew": 1400,
      "iss": 1401,
      "ven": 1402,
      "Ġbeh": 1403,
      "ĠÑĤÐ¾": 1404,
      "ier": 1405,
      "ability": 1406,
      "rol": 1407,
      "Ġmem": 1408,
      "ĠThey": 1409,
      "ĠÐŀ": 1410,
      "Ġaround": 1411,
      "Ġvis": 1412,
      "ner": 1413,
      "Ð°Ð¼": 1414,
      "ĠÐ¿ÑĢÐµÐ´": 1415,
      "Ġapplic": 1416,
      "arm": 1417,
      "ix": 1418,
      "Ġgreat": 1419,
      "Ġtype": 1420,
      "Th": 1421,
      "Ġtas": 1422,
      "Ġfollowing": 1423,
      "Sure": 1424,
      "Ġvery": 1425,
      "Ċĉ": 1426,
      "Ð¸Ñģ": 1427,
      "Ġpat": 1428,
      "Ġtop": 1429,
      "ribut": 1430,
      "Ġproper": 1431,
      "Ġconst": 1432,
      "ÑĢÐ¾Ð²Ð°": 1433,
      "Ð½Ð¾Ð²": 1434,
      "Ð¼ÐµÑĢ": 1435,
      "tle": 1436,
      "Ġday": 1437,
      "10": 1438,
      "Ðļ": 1439,
      "Ġhist": 1440,
      "Ġconsider": 1441,
      "aking": 1442,
      "thing": 1443,
      "ational": 1444,
      "Ġsoftware": 1445,
      "=\"": 1446,
      "Wh": 1447,
      "Ġdi": 1448,
      "ew": 1449,
      "ox": 1450,
      "ately": 1451,
      "Ġmade": 1452,
      "Ġinterest": 1453,
      "ÑĨÐ¸Ð¸": 1454,
      "ser": 1455,
      "ext": 1456,
      "Ġable": 1457,
      "Ġaccess": 1458,
      "oid": 1459,
      "ren": 1460,
      "Ġcar": 1461,
      "ames": 1462,
      "ĠÐĿ": 1463,
      "ĠÐ¼Ð¾Ð³": 1464,
      "Ġhapp": 1465,
      "Ġcommon": 1466,
      "Ġcomputer": 1467,
      "Ġhard": 1468,
      "__": 1469,
      "ince": 1470,
      "Ġenviron": 1471,
      "Ġbefore": 1472,
      "Ġpur": 1473,
      "Ġredu": 1474,
      "Ġlim": 1475,
      "Ġoper": 1476,
      "ÑĢÑĥÐ³": 1477,
      "Ð¾Ð±Ñĭ": 1478,
      "ĊĠĠĠĠĠĠĠĠĠĠĠ": 1479,
      "Ð²Ð»Ñı": 1480,
      "Ġsure": 1481,
      "arth": 1482,
      "Ġwrite": 1483,
      "Ġprot": 1484,
      "Ġfiel": 1485,
      "Ġcontain": 1486,
      "##": 1487,
      "Ð¡": 1488,
      "ething": 1489,
      "Ġed": 1490,
      "Ġsw": 1491,
      "Ġimprove": 1492,
      "Ġwithout": 1493,
      "itional": 1494,
      "ĠPython": 1495,
      "Ġpartic": 1496,
      "Ġbelie": 1497,
      "ock": 1498,
      "Ð¾Ðµ": 1499,
      "ĠÐ»Ð¸": 1500,
      "uc": 1501,
      "ÑĤÑĭ": 1502,
      "Ġstill": 1503,
      "Ġsystems": 1504,
      "Ġpotential": 1505,
      "://": 1506,
      "Ġinvol": 1507,
      "ĠPro": 1508,
      "gin": 1509,
      "Ġele": 1510,
      "ĠÐ´Ð¾": 1511,
      "Ġmach": 1512,
      "Ġrange": 1513,
      "Ġtrad": 1514,
      "conom": 1515,
      ",,": 1516,
      "ton": 1517,
      "Ġens": 1518,
      "Ġ7": 1519,
      "ĠÐ»Ñİ": 1520,
      "Ġexplain": 1521,
      "Ð»Ñİ": 1522,
      "Ġtraining": 1523,
      "Ð¸Ð¹": 1524,
      "ense": 1525,
      "ocus": 1526,
      "ĠY": 1527,
      "Ġcle": 1528,
      "bers": 1529,
      "Ġelect": 1530,
      "Ġsimple": 1531,
      "ale": 1532,
      "Ġhealth": 1533,
      "Ġcommand": 1534,
      "iness": 1535,
      "Ð²ÐµÑĤ": 1536,
      "Ð½Ð¾Ðµ": 1537,
      "Ġmus": 1538,
      "Ġconnect": 1539,
      "Ġagain": 1540,
      "ope": 1541,
      "vice": 1542,
      "Ġ8": 1543,
      "ĠÂ": 1544,
      "Ġcent": 1545,
      "Ð½Ð¸Ðµ": 1546,
      "Ġsomething": 1547,
      "Ġpass": 1548,
      "Ġblo": 1549,
      "Ġstory": 1550,
      "ĠÐ¾Ð¿": 1551,
      "Ġmaking": 1552,
      "vices": 1553,
      "Ġphys": 1554,
      "Ġcharacter": 1555,
      "Ġcap": 1556,
      "ĠÐ¿Ð¾Ð¼": 1557,
      "Ġlevel": 1558,
      "li": 1559,
      "Ġve": 1560,
      "here": 1561,
      "ĠÐºÐ¾Ð¼": 1562,
      ".\"": 1563,
      "Ġtoo": 1564,
      "ÑĥÐ´": 1565,
      "ĠÐºÐ¾Ð½": 1566,
      "Ġexperience": 1567,
      "Â»": 1568,
      "Ð½Ð¾ÑģÑĤÑĮ": 1569,
      "ec": 1570,
      "Ġshe": 1571,
      "Ġindivid": 1572,
      "imes": 1573,
      "ubl": 1574,
      "This": 1575,
      "Ð°ÑĢ": 1576,
      "itive": 1577,
      "ĠAs": 1578,
      "Ġchall": 1579,
      "Ġallow": 1580,
      "Ġdirect": 1581,
      "Ð±Ð¾ÑĤ": 1582,
      "',": 1583,
      "sc": 1584,
      "yle": 1585,
      "ÑģÑģ": 1586,
      "ash": 1587,
      "ĠWe": 1588,
      "ray": 1589,
      "ĠAl": 1590,
      "ĠAdd": 1591,
      "Ġmulti": 1592,
      "ergy": 1593,
      "Ġfree": 1594,
      "Ġfriend": 1595,
      "Ġkeep": 1596,
      "Ġdevelopment": 1597,
      "Ġmet": 1598,
      "ique": 1599,
      "ways": 1600,
      "ote": 1601,
      "ĠCon": 1602,
      "Ġchang": 1603,
      "Ġwebs": 1604,
      "ÑĢÐ¾Ð²": 1605,
      "Ġstruct": 1606,
      "Ġsever": 1607,
      "Ġindividual": 1608,
      "St": 1609,
      "Ġavail": 1610,
      "(\"": 1611,
      "::": 1612,
      "day": 1613,
      "Ġca": 1614,
      "Ġsum": 1615,
      "Ġfam": 1616,
      "ted": 1617,
      "atch": 1618,
      "Ġquestion": 1619,
      "23": 1620,
      "Ð³Ð°": 1621,
      "ÑĨÐµ": 1622,
      "Ġfood": 1623,
      "Ġcult": 1624,
      "ÑĥÑĩ": 1625,
      "ĠAn": 1626,
      "Ġplace": 1627,
      "Ġenvironment": 1628,
      "rect": 1629,
      "ustom": 1630,
      "Ġquestions": 1631,
      "val": 1632,
      "Ġprof": 1633,
      "ggest": 1634,
      "Ġgrow": 1635,
      "Ġsteps": 1636,
      "If": 1637,
      "Ð¹ÑĤÐµ": 1638,
      "pro": 1639,
      "Ġthose": 1640,
      "akes": 1641,
      "\":": 1642,
      "Ġlo": 1643,
      "Ð½Ð¾ÑģÑĤÐ¸": 1644,
      "\".": 1645,
      "ead": 1646,
      "lu": 1647,
      "ttps": 1648,
      "Ġseveral": 1649,
      "Ġimage": 1650,
      "Ġvers": 1651,
      "Ġsuggest": 1652,
      "plement": 1653,
      "000": 1654,
      "ĠÂ«": 1655,
      "ument": 1656,
      "Ð¸ÑĤÑĮ": 1657,
      "Ġrese": 1658,
      "oard": 1659,
      "ror": 1660,
      "Ġyears": 1661,
      "ared": 1662,
      "Ġafter": 1663,
      "ÑĤÐ¾Ð¼": 1664,
      "ÑĤÐ¾Ð±Ñĭ": 1665,
      "Ġmon": 1666,
      "...": 1667,
      "Ġthings": 1668,
      "Ġmust": 1669,
      "</": 1670,
      "Ġtem": 1671,
      "ĠÐ´ÑĢÑĥÐ³": 1672,
      "ooking": 1673,
      "ee": 1674,
      "Ġfocus": 1675,
      "Ġenergy": 1676,
      "Ġcontrol": 1677,
      "Ġimpact": 1678,
      "Ð¾Ñĩ": 1679,
      "ĠâĢĶ": 1680,
      "til": 1681,
      "ata": 1682,
      "Ġfound": 1683,
      "Ġiss": 1684,
      "Ġtest": 1685,
      "Ġhim": 1686,
      "Ġtell": 1687,
      "onse": 1688,
      "Ġcalcul": 1689,
      "net": 1690,
      "Ġsize": 1691,
      "Ġsignific": 1692,
      "commend": 1693,
      "Ġpract": 1694,
      "ists": 1695,
      "ables": 1696,
      "As": 1697,
      "Ġself": 1698,
      "oice": 1699,
      "Ġmove": 1700,
      "Ġless": 1701,
      "Ġstate": 1702,
      "There": 1703,
      "ave": 1704,
      "for": 1705,
      "ĠÐļ": 1706,
      "aster": 1707,
      "inal": 1708,
      "raph": 1709,
      "ĠÐ¼Ð¸": 1710,
      "Ġlik": 1711,
      "yn": 1712,
      "usion": 1713,
      "Ġavailable": 1714,
      "'ll": 1715,
      "ins": 1716,
      "Ġlay": 1717,
      "ĠCan": 1718,
      "Ġmag": 1719,
      "Ġworks": 1720,
      "Ġbody": 1721,
      "ĠTo": 1722,
      "Ð¾Ð»Ðµ": 1723,
      "icult": 1724,
      "Ġeconom": 1725,
      "ÑĢÐ¾Ñģ": 1726,
      "Ġmark": 1727,
      "aterial": 1728,
      "inux": 1729,
      "Ġbr": 1730,
      "Ġduring": 1731,
      "Ġconcept": 1732,
      "Ġair": 1733,
      "ull": 1734,
      "Ġplease": 1735,
      "ilar": 1736,
      "Ġprogramming": 1737,
      "ger": 1738,
      "Ġx": 1739,
      "Ġrecommend": 1740,
      "Ġest": 1741,
      "Ġmov": 1742,
      "ips": 1743,
      "Ġnow": 1744,
      "Ġskill": 1745,
      "ries": 1746,
      "Ġfactors": 1747,
      "pos": 1748,
      "sh": 1749,
      "ined": 1750,
      "Ġgre": 1751,
      "play": 1752,
      "Ġnetwork": 1753,
      "Ġbre": 1754,
      "ÑĪÐ°": 1755,
      "Ġpersonal": 1756,
      "Ġsource": 1757,
      "Ġmodels": 1758,
      "cing": 1759,
      "mer": 1760,
      "Ġorder": 1761,
      "ĠThere": 1762,
      "Ġdeterm": 1763,
      "ÐĿ": 1764,
      "ention": 1765,
      "ĠÐ½Ð¾": 1766,
      "Ġmess": 1767,
      "icient": 1768,
      "Ġalways": 1769,
      "oss": 1770,
      "Ġbas": 1771,
      "Ġamount": 1772,
      "Ġpri": 1773,
      "ĠÑģÐ¸": 1774,
      "Ġchange": 1775,
      "Ġfeatures": 1776,
      "Ġproblem": 1777,
      "Ġothers": 1778,
      "--------": 1779,
      "Ġmeans": 1780,
      "dit": 1781,
      "ior": 1782,
      "Ġlook": 1783,
      "Ġask": 1784,
      "PI": 1785,
      "ason": 1786,
      "ÑıÑĤ": 1787,
      "Ġanim": 1788,
      "Ð½Ð¾Ð¼": 1789,
      "Ġdifficult": 1790,
      "ances": 1791,
      "verse": 1792,
      "ĠÐ¼Ðµ": 1793,
      "Ġunderstanding": 1794,
      "hemat": 1795,
      "Ġcustom": 1796,
      "add": 1797,
      "ĠDe": 1798,
      "ĠÑģÐ²Ð¾": 1799,
      "Ġalgorithm": 1800,
      "ĠÐ²ÑģÐµ": 1801,
      "ĠThese": 1802,
      "Ġoutput": 1803,
      "less": 1804,
      "nces": 1805,
      "ross": 1806,
      "Ġcalled": 1807,
      "Ġdem": 1808,
      "ĠWh": 1809,
      "ãģ": 1810,
      "Ġthough": 1811,
      "Ġstre": 1812,
      "Ġuntil": 1813,
      "Ġorgan": 1814,
      "ĠCom": 1815,
      "Ð¿Ð°": 1816,
      "Ġproduct": 1817,
      "Ġelse": 1818,
      "Ġensure": 1819,
      "ci": 1820,
      "Ġthink": 1821,
      "ÐºÐ¾Ð²": 1822,
      "chie": 1823,
      "Ġlibr": 1824,
      "Ġanything": 1825,
      "ĠÑģÑĤÐ°": 1826,
      "ats": 1827,
      "Ġvarious": 1828,
      "Ġer": 1829,
      "Ġanal": 1830,
      "ÑĢÐ°Ð²": 1831,
      "ĠÑĩÑĤÐ¾Ð±Ñĭ": 1832,
      "Ġexamples": 1833,
      "Ġsl": 1834,
      "Ġsay": 1835,
      "ĠTh": 1836,
      "iven": 1837,
      "Ġprint": 1838,
      "oh": 1839,
      "ches": 1840,
      "Ð»Ð¾Ð¶": 1841,
      "Ġscript": 1842,
      "Ġsearch": 1843,
      "Ð¶Ð°": 1844,
      "ape": 1845,
      "Ġchalleng": 1846,
      "Ġsignificant": 1847,
      "Ð½Ð°Ñı": 1848,
      "Ġneeds": 1849,
      "ilities": 1850,
      "Ġresources": 1851,
      "Ġleg": 1852,
      "Ġmachine": 1853,
      "Ġgrou": 1854,
      "Ġanother": 1855,
      "ÑĪÑĮ": 1856,
      "oot": 1857,
      "Ġdid": 1858,
      "Ġ\\": 1859,
      "Ð½Ñı": 1860,
      "ĠÐ·Ð½Ð°": 1861,
      "ĠSome": 1862,
      "Ġimplement": 1863,
      "Ġfield": 1864,
      "][": 1865,
      "Ġaff": 1866,
      "ination": 1867,
      "Ġcase": 1868,
      "Ġexist": 1869,
      "Ð¾Ð»ÑĮÐºÐ¾": 1870,
      "Ġactiv": 1871,
      "Ġwhy": 1872,
      "Ð¼Ñĭ": 1873,
      "ems": 1874,
      "ator": 1875,
      "ĠĠĠĠĠĠ": 1876,
      "Ġ//": 1877,
      "import": 1878,
      "lish": 1879,
      "Ġsit": 1880,
      "Ġfut": 1881,
      "Ġuses": 1882,
      "Ġmeaning": 1883,
      "ĠÐ¿ÐµÑĢÐµ": 1884,
      "pr": 1885,
      "Ġpubl": 1886,
      "ĠLinux": 1887,
      "not": 1888,
      "Ġachie": 1889,
      "Ġcost": 1890,
      "ÑĤÑĥ": 1891,
      "Ġwid": 1892,
      "els": 1893,
      "Ġwebsite": 1894,
      "Ġlog": 1895,
      "Ġbehav": 1896,
      "Ġrest": 1897,
      "Ġcomb": 1898,
      "ÑģÑĤÐ²Ð¾": 1899,
      "Ġ**": 1900,
      "Ġstand": 1901,
      "ĠÐ¾Ñģ": 1902,
      "po": 1903,
      "dict": 1904,
      "Ġcheck": 1905,
      "view": 1906,
      "word": 1907,
      "Ġcertain": 1908,
      "ĠAnd": 1909,
      "ĠÐĺ": 1910,
      "atural": 1911,
      "Ġmaterial": 1912,
      "Yes": 1913,
      "raw": 1914,
      "ÑģÑĤÐ²Ð°": 1915,
      "Ð¶Ð¸": 1916,
      "Ġinstall": 1917,
      "crib": 1918,
      "Ġbi": 1919,
      "ĊĊ": 1920,
      "Ġsqu": 1921,
      "Ġsocial": 1922,
      "Ġconc": 1923,
      "curity": 1924,
      "cle": 1925,
      "ories": 1926,
      "Ġdri": 1927,
      "ĠEx": 1928,
      "Ġz": 1929,
      "ĠÐºÐ¾ÑĤÐ¾ÑĢÑĭÐµ": 1930,
      "come": 1931,
      "Ġvide": 1932,
      "Ġmeas": 1933,
      "Ġspace": 1934,
      "ering": 1935,
      "ĠÐ²Ð¾Ð·": 1936,
      "ĠSh": 1937,
      "Ġunique": 1938,
      "ÑģÐºÐ°": 1939,
      "und": 1940,
      "imate": 1941,
      "raft": 1942,
      "Ġcompon": 1943,
      "Ġways": 1944,
      "Ġsimilar": 1945,
      "Ġsound": 1946,
      "ÑĢÐ¾Ð¼": 1947,
      "Ġpattern": 1948,
      "Ġline": 1949,
      "ails": 1950,
      "Ġben": 1951,
      "ÑĢÐ°Ð¼": 1952,
      "ÑĤÐ¸Ð²": 1953,
      "way": 1954,
      "Ġcard": 1955,
      "Ġallows": 1956,
      "Ġnumbers": 1957,
      "Ġfur": 1958,
      "Ġport": 1959,
      "Ġlit": 1960,
      "Ġenc": 1961,
      "Ġresponse": 1962,
      "Ġperformance": 1963,
      "Ġcorrect": 1964,
      "iving": 1965,
      "ĠÐľ": 1966,
      "ĠAss": 1967,
      "Ġengine": 1968,
      "Ġweb": 1969,
      "Ġscient": 1970,
      "Ġspeed": 1971,
      "ĠAr": 1972,
      "Ð¾Ð²Ñĭ": 1973,
      "Ġfuture": 1974,
      "Ġ:": 1975,
      "Ġident": 1976,
      "ĠÐĶ": 1977,
      "ÐµÐ½ÑĮ": 1978,
      "ÑĢÐµÐ¼": 1979,
      "oose": 1980,
      "Ġgeneral": 1981,
      "kes": 1982,
      "Ġshort": 1983,
      "be": 1984,
      "par": 1985,
      "ery": 1986,
      "Ġbus": 1987,
      "Ġlikely": 1988,
      "Ðŀ": 1989,
      "uss": 1990,
      "ÐºÐµ": 1991,
      "ww": 1992,
      "ĠÑĩÐ°": 1993,
      "ĠÐ²Ð¸": 1994,
      "Ġshow": 1995,
      "Ġes": 1996,
      "ÐµÐ·": 1997,
      "Ġserver": 1998,
      "Ġprotect": 1999,
      "Ð¾Ð²Ð°ÑĤÑĮ": 2000,
      "ral": 2001,
      "ann": 2002,
      "ÑĤÐµÑĢ": 2003,
      "Ġcontent": 2004,
      "Ġmathemat": 2005,
      "Ġtasks": 2006,
      "Ð¾Ð»ÐµÐµ": 2007,
      "ital": 2008,
      "ants": 2009,
      "ÑĬ": 2010,
      "Ġlove": 2011,
      "ling": 2012,
      "Ġcare": 2013,
      "Ġinteract": 2014,
      "Ġresearch": 2015,
      "reate": 2016,
      "ĠÐ´Ðµ": 2017,
      "Ġfiles": 2018,
      "ĠÐ¢": 2019,
      "ĠIs": 2020,
      "ĠGo": 2021,
      "itionally": 2022,
      "Ġsaf": 2023,
      "Ġmind": 2024,
      "cond": 2025,
      "ĠX": 2026,
      "ember": 2027,
      "Ġarg": 2028,
      "Ġtypes": 2029,
      "ified": 2030,
      "ĠÐ±ÑĭÑĤÑĮ": 2031,
      "hor": 2032,
      "ĠÐł": 2033,
      "oun": 2034,
      "Ġsuc": 2035,
      "Ġrequest": 2036,
      "Ġhistory": 2037,
      "Ġrele": 2038,
      "Ġevent": 2039,
      "Ġstudy": 2040,
      "orld": 2041,
      "ression": 2042,
      "face": 2043,
      "Ġstore": 2044,
      "ĠEng": 2045,
      "uck": 2046,
      "ĠÑģÐµ": 2047,
      "Ġinteg": 2048,
      "Ġweight": 2049,
      "back": 2050,
      "Ġdel": 2051,
      "ateg": 2052,
      "ters": 2053,
      "Ġnecess": 2054,
      "Ġris": 2055,
      "ĠEarth": 2056,
      "Ġcontext": 2057,
      "Ġminut": 2058,
      "Ġsing": 2059,
      "Ð¼Ñĥ": 2060,
      "ÑĨÐ¸Ñı": 2061,
      "bot": 2062,
      "Ġdue": 2063,
      "rodu": 2064,
      "Ġusers": 2065,
      "ÐµÐ½ÑĤ": 2066,
      "Ð±Ðµ": 2067,
      "Ġcolor": 2068,
      "ĠÐ½Ð°Ð¿": 2069,
      "ÑģÑĤÐ²ÐµÐ½": 2070,
      "Ġskills": 2071,
      "chan": 2072,
      "Ġrespons": 2073,
      "ium": 2074,
      "ision": 2075,
      "Ġgl": 2076,
      "Ġidea": 2077,
      "Ġterms": 2078,
      "SS": 2079,
      "Ġcell": 2080,
      "Ġjo": 2081,
      "uro": 2082,
      "Ġmultiple": 2083,
      "vant": 2084,
      "vern": 2085,
      "Ġyourself": 2086,
      "ĠÐ±Ð¾Ð»ÑĮ": 2087,
      "Ġcontin": 2088,
      "ĠUse": 2089,
      "PT": 2090,
      "Ġtable": 2091,
      "ĠSc": 2092,
      "load": 2093,
      "ledge": 2094,
      "Ġbecome": 2095,
      "Ġparticular": 2096,
      "ĊĠĠĠĠĠ": 2097,
      "Ð³Ð¸": 2098,
      "Ġcompany": 2099,
      "ired": 2100,
      "ĠÐ¼Ð¾Ð¶Ð½Ð¾": 2101,
      "Ġhope": 2102,
      "Ġability": 2103,
      "Ġinflu": 2104,
      "Ġlaw": 2105,
      "Ġtools": 2106,
      "ÐĲ": 2107,
      "Ġcr": 2108,
      "Ġpa": 2109,
      "ÐµÑĤÐµ": 2110,
      "Ġwords": 2111,
      "ogn": 2112,
      "Ġtechnology": 2113,
      "Ð²Ñĭ": 2114,
      "oph": 2115,
      "Ġstructure": 2116,
      "pre": 2117,
      "Ġsent": 2118,
      "Ġold": 2119,
      "rag": 2120,
      "Ġblock": 2121,
      "de": 2122,
      "Ġsince": 2123,
      "ÑĢÐ°Ð·": 2124,
      "Ġupd": 2125,
      "Ġconsidered": 2126,
      "Ġfre": 2127,
      "âĢ¢": 2128,
      "Ġhumans": 2129,
      "Ð¾Ð·Ð´Ð°": 2130,
      "ĠÐ¶Ðµ": 2131,
      "Ġoc": 2132,
      "AI": 2133,
      "ctions": 2134,
      "Ð»ÐµÐ´": 2135,
      "19": 2136,
      "ĠÐ²Ðµ": 2137,
      "ulation": 2138,
      "ĠUS": 2139,
      "Ġrepresent": 2140,
      "Ġcause": 2141,
      "Ġenough": 2142,
      "Ġcreating": 2143,
      "Ġquant": 2144,
      "ÐµÐ»Ð¾Ð²": 2145,
      "Ġprofess": 2146,
      "))": 2147,
      "ĠQ": 2148,
      "ĠÑıÐ·Ñĭ": 2149,
      "Ġpress": 2150,
      "Ġbat": 2151,
      "alk": 2152,
      "Ð¼Ð¾Ð¶": 2153,
      "Ġsym": 2154,
      "ĠÐµÐ³Ð¾": 2155,
      "Ð½ÑĥÑİ": 2156,
      "('": 2157,
      "atic": 2158,
      "anced": 2159,
      "Ġbegin": 2160,
      "Ġvalues": 2161,
      "the": 2162,
      "Ġwar": 2163,
      "Ð²Ð°ÑĤÑĮ": 2164,
      "Ġpain": 2165,
      "Ġnatural": 2166,
      "olution": 2167,
      "Ġuni": 2168,
      "ires": 2169,
      "Ð½Ñĥ": 2170,
      "Ġnext": 2171,
      "Ð¾Ð´Ð°": 2172,
      "Ġchanges": 2173,
      "Ġbenef": 2174,
      "Please": 2175,
      "ken": 2176,
      "pose": 2177,
      "Ġlow": 2178,
      "Ġonline": 2179,
      "Ġstyle": 2180,
      "Ġpref": 2181,
      "Ġpolit": 2182,
      "joy": 2183,
      "Ġess": 2184,
      "Ġsong": 2185,
      "Ġcannot": 2186,
      "Ġstrong": 2187,
      "aut": 2188,
      "atform": 2189,
      "Ġtoget": 2190,
      "ication": 2191,
      "ĠÐ´Ð¸": 2192,
      "Ġcontribut": 2193,
      "Ġtogether": 2194,
      "ON": 2195,
      "name": 2196,
      "Ð²ÐµÑĢ": 2197,
      "indows": 2198,
      "12": 2199,
      "hip": 2200,
      "Ġlocal": 2201,
      "ug": 2202,
      "Ġdog": 2203,
      "ĠÑĤÑĭ": 2204,
      "ze": 2205,
      "Ġthree": 2206,
      "ĠĠĠĠĠĠĠ": 2207,
      "Ġsomeone": 2208,
      "Ġeasy": 2209,
      "def": 2210,
      "ĠÐĲ": 2211,
      "Ġcour": 2212,
      "ploy": 2213,
      "ĠÑĩÐµÐ»Ð¾Ð²": 2214,
      "Ġinvest": 2215,
      "An": 2216,
      "app": 2217,
      "Ġ9": 2218,
      "amp": 2219,
      "Ġwithin": 2220,
      "Ġprevent": 2221,
      "ÑĦÐ¸": 2222,
      "Ċĉĉ": 2223,
      "board": 2224,
      "ÐĶ": 2225,
      "ooks": 2226,
      "Ġknowledge": 2227,
      "Ġoptim": 2228,
      "Ġwriting": 2229,
      "Ġminutes": 2230,
      "ÑİÑī": 2231,
      "Ġnote": 2232,
      "ĠÑĨ": 2233,
      "ouse": 2234,
      "ĠÐŃ": 2235,
      "Ġorig": 2236,
      "Ġdescrib": 2237,
      "ength": 2238,
      "verage": 2239,
      "place": 2240,
      "Ġlooking": 2241,
      "umn": 2242,
      "Ġgoals": 2243,
      "Ġsuccess": 2244,
      "Ð½ÑĭÐ¼Ð¸": 2245,
      "ĠÐ±ÑĥÐ´": 2246,
      "ĠAssistant": 2247,
      "Ġtheory": 2248,
      "abor": 2249,
      "ava": 2250,
      "Ġappe": 2251,
      "py": 2252,
      "Ġtre": 2253,
      "Ġturn": 2254,
      "idd": 2255,
      "Ġstep": 2256,
      "ÐµÐ½Ð¸Ð¹": 2257,
      "Ġmethods": 2258,
      "For": 2259,
      "Ġside": 2260,
      "erc": 2261,
      "ume": 2262,
      "Ġworking": 2263,
      "Ġsoci": 2264,
      "ool": 2265,
      "Ġfram": 2266,
      "omet": 2267,
      "Ġdoc": 2268,
      "Ġrelations": 2269,
      "pri": 2270,
      "over": 2271,
      "Ġsun": 2272,
      "une": 2273,
      "ello": 2274,
      "ĠÐ¼Ð¾Ð³ÑĥÑĤ": 2275,
      "Ġcaus": 2276,
      "ĠÐ²ÑĢÐµÐ¼": 2277,
      "Ġbusiness": 2278,
      "ream": 2279,
      "ished": 2280,
      "ĠÐ²Ð¾": 2281,
      "Ġversion": 2282,
      "Ġmot": 2283,
      "Ġland": 2284,
      "Ġview": 2285,
      "ellig": 2286,
      "Ġrunning": 2287,
      "Ġreduce": 2288,
      "Ġhead": 2289,
      "Ġhy": 2290,
      "Ġprovides": 2291,
      "Ġavoid": 2292,
      "vious": 2293,
      "xim": 2294,
      "ĠÐ´Ð°": 2295,
      "Ġprompt": 2296,
      "quen": 2297,
      "erence": 2298,
      "ogle": 2299,
      "Ġtakes": 2300,
      "Ġear": 2301,
      "ÐºÑĤ": 2302,
      "irt": 2303,
      "Ġteam": 2304,
      "Ġoptions": 2305,
      "iques": 2306,
      "aces": 2307,
      "Ġdig": 2308,
      "ĠSe": 2309,
      "Ġclear": 2310,
      "Ġaffect": 2311,
      "Ġbehavior": 2312,
      "Ġtri": 2313,
      "Ġchild": 2314,
      "Ġmakes": 2315,
      "Ġquick": 2316,
      "ney": 2317,
      "Ġmessage": 2318,
      "Ġgiven": 2319,
      "ÑĢÐ°Ð½": 2320,
      "ĠPl": 2321,
      "Ġvariety": 2322,
      "Ġregular": 2323,
      "Pro": 2324,
      "iting": 2325,
      "oney": 2326,
      "Ġpredict": 2327,
      "ĠÑĤÐ°ÐºÐ¶Ðµ": 2328,
      "Ġeffective": 2329,
      "Ġtemper": 2330,
      "Ðĺ": 2331,
      "amet": 2332,
      "Ð±Ð¾": 2333,
      "Ð¾Ð³Ð´Ð°": 2334,
      "Ð¾Ð´Ñĥ": 2335,
      "ĠZ": 2336,
      "arget": 2337,
      "ĠÐ±Ð¾Ð»ÐµÐµ": 2338,
      "ube": 2339,
      "11": 2340,
      "med": 2341,
      "of": 2342,
      "ides": 2343,
      "ĠDo": 2344,
      "Ġplatform": 2345,
      "Ġproblems": 2346,
      "Hello": 2347,
      "Ġcome": 2348,
      "Ð¾ÐºÐ°": 2349,
      "Ġindust": 2350,
      "Ġexperien": 2351,
      "Ġcharacters": 2352,
      "Ġissues": 2353,
      "ðŁ": 2354,
      "Ġpack": 2355,
      "ĠÐ´Ð°Ð½": 2356,
      "Ġrole": 2357,
      "ĠÐµÑģÐ»Ð¸": 2358,
      "Ġstring": 2359,
      "\")": 2360,
      "ÑĢÐ¾Ð¹": 2361,
      "ÑĤÐ¸ÑĩÐµÑģÐº": 2362,
      "ording": 2363,
      "Ġlibrary": 2364,
      "ird": 2365,
      "istic": 2366,
      "Ġsal": 2367,
      "Ġrece": 2368,
      "vert": 2369,
      "ĠÐ½Ð¸": 2370,
      "Ġapplications": 2371,
      "Ġagainst": 2372,
      "Ġsumm": 2373,
      "icro": 2374,
      "Ġsubject": 2375,
      "Ġpoints": 2376,
      "'ve": 2377,
      "Ġnon": 2378,
      "ĠÐ²Ð¾Ð¿": 2379,
      "ĠÑģÐ°Ð¼": 2380,
      "iled": 2381,
      "Ġgovern": 2382,
      "ÐµÐ¼Ñĥ": 2383,
      "Ġapproach": 2384,
      "Ġfurther": 2385,
      "Ġnecessary": 2386,
      "Ġmemory": 2387,
      "],": 2388,
      "ane": 2389,
      "ÑĩÐ½Ð¾": 2390,
      "ury": 2391,
      "Ġdesigned": 2392,
      "orn": 2393,
      "Ð°Ð»": 2394,
      "Ġquality": 2395,
      "Ġgenerate": 2396,
      "Ġremain": 2397,
      "Ġbot": 2398,
      "let": 2399,
      "ĠÑģÐ¾Ð·Ð´Ð°": 2400,
      "Ġstrateg": 2401,
      "ibility": 2402,
      "Ġsingle": 2403,
      "ER": 2404,
      "ST": 2405,
      "fort": 2406,
      "we": 2407,
      "ym": 2408,
      "Ġkind": 2409,
      "Ġresults": 2410,
      "Ġcommunity": 2411,
      "orks": 2412,
      "Ġmil": 2413,
      "ÑĥÐ¶": 2414,
      "ĠÐ¸Ñħ": 2415,
      "Ġhaving": 2416,
      "Ġimages": 2417,
      "Ġword": 2418,
      "opy": 2419,
      "ients": 2420,
      "str": 2421,
      "ķÑģÐ»Ð¸": 2422,
      "Ġdone": 2423,
      "Ġtechniques": 2424,
      "Ġincrease": 2425,
      "ĠAdditionally": 2426,
      "Ġtimes": 2427,
      "ctor": 2428,
      "Ġgr": 2429,
      "Ġmechan": 2430,
      "Ġscience": 2431,
      "rand": 2432,
      "ĠSp": 2433,
      "Ġdeep": 2434,
      "Ġcreated": 2435,
      "Ġattack": 2436,
      "Ġhig": 2437,
      "ilos": 2438,
      "ĠÐ¾Ð´": 2439,
      "ÑĮÑİ": 2440,
      "Ġmaintain": 2441,
      "Thank": 2442,
      "Ġdr": 2443,
      "ĠEn": 2444,
      "ĠÐ»ÑİÐ±": 2445,
      "Ġpast": 2446,
      "ute": 2447,
      "ĠBut": 2448,
      "Ġspecial": 2449,
      "uation": 2450,
      "head": 2451,
      "oring": 2452,
      "ĠÐ¼ÐµÐ½": 2453,
      "Ġservices": 2454,
      "Ġphysical": 2455,
      "Ġmarket": 2456,
      "just": 2457,
      "Ġcir": 2458,
      "Ġsecond": 2459,
      "Ġapplication": 2460,
      "Do": 2461,
      "ert": 2462,
      "Ġhelps": 2463,
      "ĠÑıÐ²Ð»Ñı": 2464,
      "Ġdepending": 2465,
      "IN": 2466,
      "Ġcity": 2467,
      "Ġarea": 2468,
      "ĠPh": 2469,
      "Ġchoice": 2470,
      "Ð¾Ð¶Ðµ": 2471,
      "ĠÐ¿Ð¾Ñģ": 2472,
      "Ġefficient": 2473,
      "Ġadvant": 2474,
      "50": 2475,
      "che": 2476,
      "Ñį": 2477,
      "Ġlast": 2478,
      "Ġobjects": 2479,
      "urope": 2480,
      "idence": 2481,
      "Ġsecurity": 2482,
      "text": 2483,
      "wards": 2484,
      "Ġgroup": 2485,
      "ĠÐ²Ð¾Ð¿ÑĢÐ¾Ñģ": 2486,
      "Ġmass": 2487,
      "Ġey": 2488,
      "ental": 2489,
      "ules": 2490,
      "ĠAPI": 2491,
      "Ġfore": 2492,
      "izing": 2493,
      "ÑİÑĤÑģÑı": 2494,
      "ĠÑħÐ¾": 2495,
      "ush": 2496,
      "Ġsets": 2497,
      "Ġalgorithms": 2498,
      "Ġelements": 2499,
      "arc": 2500,
      "Ġgen": 2501,
      "ĠÑģÑĥ": 2502,
      "ÑĢÐ¸Ð¼ÐµÑĢ": 2503,
      "land": 2504,
      "Ġ_": 2505,
      "Ġaud": 2506,
      "ÐµÑĤÑĮ": 2507,
      "Ð¾Ð³Ð¸": 2508,
      "aging": 2509,
      "Ġoccur": 2510,
      "Ġball": 2511,
      "Ġnever": 2512,
      "Ġmodern": 2513,
      "Ġideas": 2514,
      "bal": 2515,
      "Ġsense": 2516,
      "lex": 2517,
      "Ġlot": 2518,
      "ĠÐ¾Ð½": 2519,
      "Ð¿Ð¸": 2520,
      "Ġvol": 2521,
      "Ġleft": 2522,
      "acy": 2523,
      "ĠÐ¾ÑĤÐ²ÐµÑĤ": 2524,
      "Ġflow": 2525,
      "ask": 2526,
      "Ġhome": 2527,
      "Ð»Ð¾Ð²": 2528,
      "ived": 2529,
      "Ġenjoy": 2530,
      "ÑĦÐ¾ÑĢ": 2531,
      "ml": 2532,
      "orry": 2533,
      "Ġexplore": 2534,
      "Ġrad": 2535,
      "Ġmusic": 2536,
      "az": 2537,
      "anks": 2538,
      "Ġbrain": 2539,
      "Ð½Ð°Ðº": 2540,
      "Ġmanage": 2541,
      "Ġachieve": 2542,
      "Is": 2543,
      "Ġsort": 2544,
      "Ð»ÐµÐ½": 2545,
      "ample": 2546,
      "ĠÐºÑĥ": 2547,
      "meric": 2548,
      "Write": 2549,
      "son": 2550,
      "Ġwind": 2551,
      "Ġtravel": 2552,
      "Ġadditional": 2553,
      "Ġlanguages": 2554,
      "Ġdetect": 2555,
      "Ġbuilding": 2556,
      "Ġbasic": 2557,
      "Ð¢": 2558,
      "Ġet": 2559,
      "ĠÐ¸Ð³": 2560,
      "And": 2561,
      "https": 2562,
      "Ġhour": 2563,
      "Ġpowerful": 2564,
      "ule": 2565,
      "Ġsch": 2566,
      "Ġfunctions": 2567,
      "Ġvideo": 2568,
      "Ġmo": 2569,
      "Ġinc": 2570,
      "Ġreason": 2571,
      "Ġchallenges": 2572,
      "Ðľ": 2573,
      "ormal": 2574,
      "Ġfeed": 2575,
      "Ch": 2576,
      "apt": 2577,
      "Ġtoday": 2578,
      "arb": 2579,
      "Ġtrack": 2580,
      "side": 2581,
      "Ġroot": 2582,
      "Ġcy": 2583,
      "ĠWhen": 2584,
      "ĠÑĢÐ°Ð±Ð¾ÑĤ": 2585,
      "ration": 2586,
      "Ð»ÐµÐ¼": 2587,
      "ÐºÐ¾Ð¼": 2588,
      "Ġinstead": 2589,
      "Ġpublic": 2590,
      "aries": 2591,
      "Ġdatas": 2592,
      "ÑĨÐ¸Ð¾Ð½": 2593,
      "17": 2594,
      "Ġinit": 2595,
      "roll": 2596,
      "Ġprevious": 2597,
      "Ġsens": 2598,
      "Ġnature": 2599,
      "Ġeconomic": 2600,
      "AN": 2601,
      "Ð´Ñĭ": 2602,
      "ĠÐ¸Ð¼Ðµ": 2603,
      "Ġgoal": 2604,
      "ipe": 2605,
      "ĠIm": 2606,
      "ĠÑģÐ»Ñĥ": 2607,
      "Ð·Ð¸": 2608,
      "ĠPlease": 2609,
      "Ġtrying": 2610,
      "Ġdetermine": 2611,
      "So": 2612,
      "That": 2613,
      "We": 2614,
      "Ð°Ð¹": 2615,
      "Ġwide": 2616,
      "Ġpie": 2617,
      "Ġneg": 2618,
      "Ġpriv": 2619,
      "jor": 2620,
      "ties": 2621,
      "Ġlive": 2622,
      "ÑģÑĤÑĥ": 2623,
      "Ð¾Ð³ÑĢÐ°Ð¼": 2624,
      "Ġevents": 2625,
      "Ġphilos": 2626,
      "++": 2627,
      "col": 2628,
      "ground": 2629,
      "Ġ&": 2630,
      "ĠÐ¿Ð¾Ð½": 2631,
      "Ġareas": 2632,
      "Ġ12": 2633,
      "izes": 2634,
      "ĠÐ²Ð°Ð¼": 2635,
      "Ġquantum": 2636,
      "Ġprofessional": 2637,
      "ĊĠĠ": 2638,
      "Ġbro": 2639,
      "pecial": 2640,
      "Ġtrue": 2641,
      "Ġaddress": 2642,
      "man": 2643,
      "Ð¾Ñī": 2644,
      "Ġcall": 2645,
      "Ġpresent": 2646,
      "Ġeth": 2647,
      "Ð»ÐµÐ½Ð¸Ñı": 2648,
      "oms": 2649,
      "Ġexerc": 2650,
      "Ġintellig": 2651,
      "ĠEurope": 2652,
      "Ġaction": 2653,
      "Ġchoose": 2654,
      "Ġaccount": 2655,
      "ohn": 2656,
      "Ġmeasure": 2657,
      "sy": 2658,
      "Ġcrit": 2659,
      "lying": 2660,
      "ivity": 2661,
      "ĠÐµÑģÑĤÑĮ": 2662,
      "15": 2663,
      "Ġbook": 2664,
      "Ġgames": 2665,
      "ĠSo": 2666,
      "ĠJava": 2667,
      "ÑīÐµÑģÑĤÐ²": 2668,
      "Ġfast": 2669,
      "ĠÑįÑĤ": 2670,
      "iod": 2671,
      "ĠTr": 2672,
      "Ġplayer": 2673,
      "Ġstandard": 2674,
      "por": 2675,
      "ÑĤÑģÑı": 2676,
      "Ġbal": 2677,
      "Ġbrow": 2678,
      "ĠAmeric": 2679,
      "ysis": 2680,
      "ah": 2681,
      "based": 2682,
      "Ġfar": 2683,
      "Ġgain": 2684,
      "Ġgraph": 2685,
      "Ġfamily": 2686,
      "80": 2687,
      "Ġtarget": 2688,
      "Ġfall": 2689,
      "Ġput": 2690,
      "Ġpath": 2691,
      "ÐºÐ»Ñİ": 2692,
      "amed": 2693,
      "ĠCreate": 2694,
      "Ġgoing": 2695,
      "Ġrock": 2696,
      "ready": 2697,
      "time": 2698,
      "isc": 2699,
      "ĠCl": 2700,
      "num": 2701,
      "python": 2702,
      "Ġmoney": 2703,
      "Ð»Ñĭ": 2704,
      "ently": 2705,
      "âĢĿ": 2706,
      "Ġservice": 2707,
      "Ġobser": 2708,
      "Ġlittle": 2709,
      "Ex": 2710,
      "ML": 2711,
      "light": 2712,
      "Ð¾ÑĢÐ¸": 2713,
      "Ð°Ð»Ð¸": 2714,
      "aring": 2715,
      "Ġrather": 2716,
      "Ġwhether": 2717,
      "ÑģÑĤÐ¾Ñı": 2718,
      "irtual": 2719,
      "Ġflo": 2720,
      "Ġpython": 2721,
      "erences": 2722,
      "Ġstarted": 2723,
      "bol": 2724,
      "ancial": 2725,
      "Ġpres": 2726,
      "Ġharm": 2727,
      "Ġlower": 2728,
      "ĠÐ²Ñģ": 2729,
      "ĠÐ²ÐµÑĢ": 2730,
      "Ġsend": 2731,
      "ĠWhile": 2732,
      "Ġscientific": 2733,
      "PU": 2734,
      "file": 2735,
      "ĠÐ¼Ð½": 2736,
      "rypt": 2737,
      "Ġscen": 2738,
      "Ġclos": 2739,
      "Ġtask": 2740,
      "ÐļÐ°Ðº": 2741,
      "Ġsociety": 2742,
      "ither": 2743,
      "Ġbit": 2744,
      "ĠShe": 2745,
      "ĠÐ´Ð¾Ð»": 2746,
      "Ġleast": 2747,
      "Ġwee": 2748,
      "Ġtypically": 2749,
      "ey": 2750,
      "Ġpay": 2751,
      "asing": 2752,
      "ÑĢÐµÐ±": 2753,
      "Ġemot": 2754,
      "ĠÑģÐ¸ÑģÑĤ": 2755,
      "Ġsquare": 2756,
      "Ð°Ñģ": 2757,
      "ĠÐ¼Ð½Ðµ": 2758,
      "Ð¾Ð´Ðµ": 2759,
      "Ġaway": 2760,
      "Ġglo": 2761,
      "ĠHT": 2762,
      "oci": 2763,
      "Ġuseful": 2764,
      "ologies": 2765,
      "Ġrequirements": 2766,
      "Con": 2767,
      "ailed": 2768,
      "Ġdate": 2769,
      "Ġ--": 2770,
      "Ġtrained": 2771,
      "craft": 2772,
      "right": 2773,
      "tml": 2774,
      "ese": 2775,
      "Ġmor": 2776,
      "Ġhttps": 2777,
      "Ð²Ð¾Ð»": 2778,
      "ung": 2779,
      "Ġvary": 2780,
      "Ġdifference": 2781,
      "Ġloop": 2782,
      ",\"": 2783,
      "Ġsources": 2784,
      "Ð°Ñı": 2785,
      "ĠChat": 2786,
      "Ġintrodu": 2787,
      "Ġseries": 2788,
      "Ġrelated": 2789,
      "Ġrecogn": 2790,
      "Ġprovided": 2791,
      "Ġdepends": 2792,
      "Ġpurpose": 2793,
      "path": 2794,
      "ÑĢÐµÑģ": 2795,
      "Ġacross": 2796,
      "ological": 2797,
      "Ġplayers": 2798,
      "Ġdetails": 2799,
      "ĠUnited": 2800,
      "Ġrelevant": 2801,
      "ĠEnglish": 2802,
      "Ġtemperature": 2803,
      "mit": 2804,
      "Ð¼Ð¾": 2805,
      "ulate": 2806,
      "resh": 2807,
      "ĠÐ¾Ð±ÑĬ": 2808,
      "new": 2809,
      "Ġcapt": 2810,
      "aw": 2811,
      "inter": 2812,
      "Ġlength": 2813,
      "Ð²Ð¾Ð´": 2814,
      "key": 2815,
      "Ġexpect": 2816,
      "Ġalready": 2817,
      "ÑĢÐ°Ð±Ð¾ÑĤ": 2818,
      "ĠMake": 2819,
      "ĠÐ·Ð°Ð´Ð°": 2820,
      "Ġtransform": 2821,
      "go": 2822,
      "Ġprob": 2823,
      "Ġexc": 2824,
      "Ð¿Ðµ": 2825,
      "Ġneural": 2826,
      "Ġscre": 2827,
      "Ġrobot": 2828,
      "ĠGoogle": 2829,
      "ĠÐ¼ÐµÐ½Ñı": 2830,
      "set": 2831,
      "Ġaltern": 2832,
      "Ġmeet": 2833,
      "Ġadjust": 2834,
      "ĠLet": 2835,
      "Ġneeded": 2836,
      "Ġemail": 2837,
      "Ġinvolves": 2838,
      "ining": 2839,
      "Ð¸ÑĤÐ°": 2840,
      "ites": 2841,
      "Ġopp": 2842,
      "Ġreally": 2843,
      "ilt": 2844,
      "Ð½Ð¸Ð¼Ð°": 2845,
      "pportun": 2846,
      "Ġfull": 2847,
      "ĠÑģÐ¾Ð²": 2848,
      "Ġdep": 2849,
      "ÑĤÐ¾ÑĢÑĭ": 2850,
      "Ġmajor": 2851,
      "Ġabove": 2852,
      "Ġdatab": 2853,
      "Ġlimit": 2854,
      "ditions": 2855,
      "Ġdocument": 2856,
      "\">": 2857,
      "ĠÑĢ": 2858,
      "Ġdiv": 2859,
      "Ġstat": 2860,
      "ĠEm": 2861,
      "ÑĨÐ°": 2862,
      "ograph": 2863,
      "Ġdisplay": 2864,
      "Ġperiod": 2865,
      "Ġoffer": 2866,
      "Ġdistance": 2867,
      "ĠÐ¶Ð¸Ð·": 2868,
      "data": 2869,
      "Ġwon": 2870,
      "Ġbig": 2871,
      "ÑĥÑĩÐ¸": 2872,
      "ĠGerm": 2873,
      "ÑģÑĤÐ²Ð¸": 2874,
      "Ġhappen": 2875,
      "ift": 2876,
      "ÑĢÐ°Ð²Ð¸": 2877,
      "Ġdeb": 2878,
      "Ġsuper": 2879,
      "ĠÐ¼Ñĭ": 2880,
      "Ġcontinue": 2881,
      "Ġpolitical": 2882,
      "ura": 2883,
      "ĠGod": 2884,
      "Ġsmo": 2885,
      "ĠÐºÐ¾ÑĤÐ¾ÑĢÑĭÐ¹": 2886,
      "Ġlevels": 2887,
      "Ġdays": 2888,
      "Ġ==": 2889,
      "ification": 2890,
      "Ġincludes": 2891,
      "Ġcoll": 2892,
      "Ġassist": 2893,
      "Ġmedia": 2894,
      "Ġtraditional": 2895,
      "Ġcourse": 2896,
      "QL": 2897,
      "When": 2898,
      "Ġopportun": 2899,
      "ĠAp": 2900,
      "Ġ100": 2901,
      "ĠÑĤÐ¾Ð³Ð¾": 2902,
      "Ġregard": 2903,
      "priate": 2904,
      "But": 2905,
      "enc": 2906,
      "ÑĥÐµÑĤ": 2907,
      "Ġconditions": 2908,
      "Ð±Ñı": 2909,
      "Ġaccur": 2910,
      "avor": 2911,
      "Ġrequires": 2912,
      "Why": 2913,
      "GPT": 2914,
      "Script": 2915,
      "itch": 2916,
      "Ġfish": 2917,
      "Ġdark": 2918,
      "empt": 2919,
      "ĠWindows": 2920,
      "ĠBy": 2921,
      "Ġhelpful": 2922,
      "ension": 2923,
      "Ġminim": 2924,
      "Ġuniverse": 2925,
      "IT": 2926,
      "au": 2927,
      "Ġstay": 2928,
      "Ġitems": 2929,
      "ĠBe": 2930,
      "ĠÐ¿ÑĢÐ¾Ð¸Ð·": 2931,
      "Ġestab": 2932,
      "ĠÐ²Ð¾Ð·Ð¼Ð¾Ð¶": 2933,
      "Ġidentify": 2934,
      "ik": 2935,
      "Ġful": 2936,
      "Ġpost": 2937,
      "ĠÐ¿Ð°": 2938,
      "Ġcond": 2939,
      "ĠWorld": 2940,
      "ĠÐ¸Ð½ÑĤÐµ": 2941,
      "Ġcountry": 2942,
      "ĠÑģÐ¾Ð±": 2943,
      "ĠBrit": 2944,
      "Ġhighly": 2945,
      "Ġpolic": 2946,
      "Ġerror": 2947,
      "22": 2948,
      "Al": 2949,
      "ball": 2950,
      "oman": 2951,
      "Ġstop": 2952,
      "Ð´Ð¾": 2953,
      "unt": 2954,
      "ĠChe": 2955,
      "Ġprogress": 2956,
      "Ġblue": 2957,
      "Ġconcern": 2958,
      "Ġrisk": 2959,
      "Over": 2960,
      "ĠÐ¿ÑĢÐµ": 2961,
      "ĠÐ¿Ð¾Ð¿": 2962,
      "Ġexec": 2963,
      "Ġdevices": 2964,
      "arent": 2965,
      "Ġevidence": 2966,
      "Ġfriends": 2967,
      "pecially": 2968,
      "RE": 2969,
      "cient": 2970,
      "uff": 2971,
      "inally": 2972,
      "esp": 2973,
      "Ġface": 2974,
      "alf": 2975,
      "Ġnp": 2976,
      "Ġchord": 2977,
      "ribution": 2978,
      "ĠÐ²ÑĢÐµÐ¼Ñı": 2979,
      "Ġhigher": 2980,
      "Ġcases": 2981,
      "leep": 2982,
      "use": 2983,
      "Ġalong": 2984,
      "Ġdoing": 2985,
      "ÑĨÐ¸Ñİ": 2986,
      "ones": 2987,
      "Ġshare": 2988,
      "Ġjour": 2989,
      "Ġwritten": 2990,
      "ĠÐĿÐ°": 2991,
      "Ġpractice": 2992,
      "ynam": 2993,
      "Ġquickly": 2994,
      "No": 2995,
      "ÑĥÐ½": 2996,
      "ĠWith": 2997,
      "Ġformat": 2998,
      "Ġstarting": 2999,
      "Ġlocation": 3000,
      "Ġautom": 3001,
      "Ġcountries": 3002,
      "ĠÐºÐ¾Ð¼Ð¿": 3003,
      "print": 3004,
      "')": 3005,
      "Ð¿Ð¾Ð»": 3006,
      "Ġheart": 3007,
      "Ġoption": 3008,
      "Ġmill": 3009,
      "Ġroom": 3010,
      "ĊĠĠĠĠĠĠĠĠĠĠĠĠĠĠĠ": 3011,
      "Ġprojects": 3012,
      "Ġbelieve": 3013,
      "Ġindividuals": 3014,
      "tal": 3015,
      "Ġfac": 3016,
      "Ġdam": 3017,
      "rad": 3018,
      "Ġconvers": 3019,
      "ĠAd": 3020,
      "Ġusually": 3021,
      "Ġsupp": 3022,
      "Ġrespect": 3023,
      "Ġadvanced": 3024,
      "Ġdoesn": 3025,
      "Ġparamet": 3026,
      "ID": 3027,
      "Ð§": 3028,
      "Ġage": 3029,
      "itor": 3030,
      "ency": 3031,
      "Ġ=>": 3032,
      "Ġposition": 3033,
      "ĠÐ¿ÑĢÐ¾Ð³ÑĢÐ°Ð¼": 3034,
      "ounter": 3035,
      "aps": 3036,
      "ele": 3037,
      "Ġtaking": 3038,
      "Ġloss": 3039,
      "Ġonce": 3040,
      "ĠOne": 3041,
      "Ġdescript": 3042,
      "Ġpositive": 3043,
      "Ġprocessing": 3044,
      "ngth": 3045,
      "Ġsaid": 3046,
      "Ġelement": 3047,
      "Ġintelligence": 3048,
      "rop": 3049,
      "iment": 3050,
      "Ġproviding": 3051,
      "cc": 3052,
      "inci": 3053,
      "ators": 3054,
      "Ð²Ñĥ": 3055,
      "Ġsepar": 3056,
      "Ġ30": 3057,
      "ĠâĢľ": 3058,
      "Ġeasier": 3059,
      "Ġfinancial": 3060,
      "like": 3061,
      "source": 3062,
      "Ðł": 3063,
      "Ġ>": 3064,
      "ĠÐĳ": 3065,
      "rem": 3066,
      "Ġegg": 3067,
      "aches": 3068,
      "Ð¾Ð²Ð°Ð½Ð¸Ñı": 3069,
      "Ġitself": 3070,
      "Ġcollect": 3071,
      "Ġessential": 3072,
      "ĠÐŃÑĤÐ¾": 3073,
      "ĠÐ±ÑĥÐ´ÐµÑĤ": 3074,
      "'d": 3075,
      "itle": 3076,
      "Ġmix": 3077,
      "ÑģÐ°": 3078,
      "Ġthing": 3079,
      "These": 3080,
      "Ġvalid": 3081,
      "Ġbelief": 3082,
      "Ġwidely": 3083,
      "onal": 3084,
      "ised": 3085,
      "lection": 3086,
      "Ġexact": 3087,
      "ĠNew": 3088,
      "aken": 3089,
      "Ġespecially": 3090,
      "Ġgovernment": 3091,
      "55": 3092,
      "by": 3093,
      "log": 3094,
      "nov": 3095,
      "roid": 3096,
      "Ġhardware": 3097,
      "co": 3098,
      "zz": 3099,
      "ises": 3100,
      "Ġfig": 3101,
      "Ġbase": 3102,
      "my": 3103,
      "Ġslow": 3104,
      "icate": 3105,
      "icien": 3106,
      "ump": 3107,
      "Ð»Ð¸Ñĩ": 3108,
      "ĠÐ±ÐµÐ·": 3109,
      "ĠInst": 3110,
      "const": 3111,
      "Ġdirectory": 3112,
      "Ġanimals": 3113,
      "One": 3114,
      "lict": 3115,
      "ply": 3116,
      "Ġintern": 3117,
      "Ġsolve": 3118,
      "Ġattention": 3119,
      "ÑĢÐ¾Ð½": 3120,
      "ĠĠĠĠĠ": 3121,
      "ption": 3122,
      "Ġphot": 3123,
      "Ġexplan": 3124,
      "ÑĢÐ¾Ð²Ð°ÑĤÑĮ": 3125,
      "Ġclean": 3126,
      "Ġsorry": 3127,
      "ÑīÐ°": 3128,
      "Ġemploy": 3129,
      "Ġgetting": 3130,
      "Ġmaterials": 3131,
      "Ġcomponent": 3132,
      "Ġbenefits": 3133,
      "LE": 3134,
      "Ð´ÐµÑĢ": 3135,
      "ulations": 3136,
      "Ġselect": 3137,
      "Ġarray": 3138,
      "Ġinternet": 3139,
      "Ġassoci": 3140,
      "Ġinteresting": 3141,
      "Ġfit": 3142,
      "Ġreach": 3143,
      "utions": 3144,
      "ula": 3145,
      "ÑĢÐ°Ðº": 3146,
      "ĠSet": 3147,
      "ÐµÑĤÐ°": 3148,
      "ĠBl": 3149,
      "anger": 3150,
      "aves": 3151,
      "Ġconsum": 3152,
      "Ġsolution": 3153,
      "Ð¾ÑģÐ¾Ð±": 3154,
      "Ġconstant": 3155,
      "Ġcomponents": 3156,
      "ĠÑģÐ¸ÑģÑĤÐµÐ¼": 3157,
      "AR": 3158,
      "Could": 3159,
      "eep": 3160,
      "from": 3161,
      "ĠÐ¿ÐµÑĢ": 3162,
      "Ġweather": 3163,
      "ÑģÐ¿Ðµ": 3164,
      "Ġproperties": 3165,
      "ault": 3166,
      "list": 3167,
      "uild": 3168,
      "Ġcat": 3169,
      "uments": 3170,
      "Ġ200": 3171,
      "Ġjob": 3172,
      "Ġprim": 3173,
      "();": 3174,
      "Ġhandle": 3175,
      "Ġleading": 3176,
      "Ġauthor": 3177,
      "Ġbreak": 3178,
      "Ġanaly": 3179,
      "Ġpatterns": 3180,
      "Ġpaper": 3181,
      "Ð¸Ð¼Ð¸": 3182,
      "Ġdraw": 3183,
      "ights": 3184,
      "value": 3185,
      "Ġcells": 3186,
      "alking": 3187,
      "Ġstates": 3188,
      "unch": 3189,
      "ĠCons": 3190,
      "ÐµÑĤÐ¸": 3191,
      "Ġabs": 3192,
      "ÐµÐ½Ð¸Ð¸": 3193,
      "Ġroll": 3194,
      "Ġappropriate": 3195,
      "Ġhistor": 3196,
      "Ġbran": 3197,
      "LL": 3198,
      "date": 3199,
      "mos": 3200,
      "sel": 3201,
      "Ġnormal": 3202,
      "Ġconse": 3203,
      "ĠÑįÑĤÐ¸": 3204,
      "clude": 3205,
      "Ġcolumn": 3206,
      "Ġattempt": 3207,
      "Ġproduction": 3208,
      "Ġgrowth": 3209,
      "Ġoriginal": 3210,
      "Ġetc": 3211,
      "Ġphilosoph": 3212,
      "Ġver": 3213,
      "ĠÑĪ": 3214,
      "ÑĭÑħ": 3215,
      "Ġwhite": 3216,
      "ĠÑįÐº": 3217,
      "Ġlarger": 3218,
      "ĠÐºÐ°Ð¶": 3219,
      "Ġconcepts": 3220,
      "-.": 3221,
      "Com": 3222,
      "ai": 3223,
      "Ġaverage": 3224,
      "inary": 3225,
      "ÑĤÐ¾Ð²": 3226,
      "Ġwa": 3227,
      "Ġdest": 3228,
      "Ġeither": 3229,
      "Ġbecom": 3230,
      "uth": 3231,
      "abilities": 3232,
      "Ġheav": 3233,
      "pper": 3234,
      "ificial": 3235,
      "cious": 3236,
      "Ġ?": 3237,
      "ĠÑĢÑĥ": 3238,
      "ÐµÑĪÑĮ": 3239,
      "asons": 3240,
      "Ġnamed": 3241,
      "Ġcomes": 3242,
      "Ð¿Ñĥ": 3243,
      "ÐµÐ½Ð¸Ñİ": 3244,
      "ĠÑĤÐ¾Ð¼": 3245,
      "ĠJohn": 3246,
      "Ġinterpre": 3247,
      "ĠÐ²Ð°Ñģ": 3248,
      "Ġdiscuss": 3249,
      "Ġeduc": 3250,
      "Ġinitial": 3251,
      "ĠÑģÐ»ÑĥÑĩÐ°": 3252,
      "aur": 3253,
      "hing": 3254,
      "ius": 3255,
      "rics": 3256,
      "Ð¯": 3257,
      "Ġ%": 3258,
      "isions": 3259,
      "ÑıÑĤÑĮ": 3260,
      "ĠÐ½ÑĥÐ¶": 3261,
      "ĠMy": 3262,
      "Ġ16": 3263,
      "ĠÐ½ÐµÑģÐº": 3264,
      "ensive": 3265,
      "ĠStates": 3266,
      "ĠÑģÐ²Ñı": 3267,
      "Ġhours": 3268,
      "Ġpage": 3269,
      "Ġoil": 3270,
      "elling": 3271,
      "Ġconsist": 3272,
      "Ġcool": 3273,
      "Ġtransl": 3274,
      "Ð·ÑĭÐ²Ð°": 3275,
      "Ġframew": 3276,
      "Ġfeedback": 3277,
      "Ġglobal": 3278,
      "rast": 3279,
      "ÑģÑĥ": 3280,
      "ÑģÑĭ": 3281,
      "aling": 3282,
      "rap": 3283,
      "ival": 3284,
      "Ġcompet": 3285,
      "Ġdistribution": 3286,
      "Ġinsp": 3287,
      "Ġinside": 3288,
      "Ġblack": 3289,
      "Ġhappy": 3290,
      "Ġindustry": 3291,
      "Ġexperiences": 3292,
      "16": 3293,
      "ĠÐĵ": 3294,
      "Ġlat": 3295,
      "Ġforce": 3296,
      "ider": 3297,
      "Ġ15": 3298,
      "Ġ18": 3299,
      "Ġplaying": 3300,
      "Ġdefin": 3301,
      "Ġsmaller": 3302,
      "Ġlimited": 3303,
      "Ġanalysis": 3304,
      "ĠÑĩÐµÐ»Ð¾Ð²Ðµ": 3305,
      "Ġdataset": 3306,
      "iciency": 3307,
      "Your": 3308,
      "ystem": 3309,
      "Ġtast": 3310,
      "Ġmiss": 3311,
      "Ġliving": 3312,
      "ĠÐ¿Ð¾ÑĤ": 3313,
      "Ð±Ð¸": 3314,
      "Ð½Ð¸Ð¸": 3315,
      "Ġassistant": 3316,
      "Ġrequired": 3317,
      "ĠÑıÐ²Ð»ÑıÐµÑĤÑģÑı": 3318,
      "\"\"": 3319,
      "Ã©": 3320,
      "Ġground": 3321,
      "soft": 3322,
      "Ġbuy": 3323,
      "ÑĤÐµÐ»ÑĮÐ½Ð¾": 3324,
      "Ġplanet": 3325,
      "ÐĿÐ°": 3326,
      "Ġge": 3327,
      "Ġdevice": 3328,
      "Ġsimply": 3329,
      "Ġnetworks": 3330,
      "quences": 3331,
      "30": 3332,
      "body": 3333,
      "rid": 3334,
      "rong": 3335,
      "Ġcopy": 3336,
      "Ġreview": 3337,
      "ÑģÑĤÐµ": 3338,
      "Ð¾Ð»Ð¸": 3339,
      "Ġrout": 3340,
      "clusion": 3341,
      "Ġcontinu": 3342,
      "angle": 3343,
      "Ġcommit": 3344,
      "Overall": 3345,
      "Ġcut": 3346,
      "Ġdynam": 3347,
      "arl": 3348,
      "ids": 3349,
      "Ġant": 3350,
      "Ġrules": 3351,
      "Ġamong": 3352,
      "Ġprinci": 3353,
      "ÑĥÑİÑī": 3354,
      "addle": 3355,
      "iel": 3356,
      "js": 3357,
      "mon": 3358,
      "ÐºÐ¾Ð¹": 3359,
      "quence": 3360,
      "ĠÑĥÐ¿": 3361,
      "aving": 3362,
      "atively": 3363,
      "Ġvariable": 3364,
      "ler": 3365,
      "tr": 3366,
      "Ġmar": 3367,
      "ĠÐ¿Ð¾Ð²": 3368,
      "ably": 3369,
      "Ġeffort": 3370,
      "2023": 3371,
      "Ġthought": 3372,
      "ĠÐ¾ÑģÐ½Ð¾Ð²": 3373,
      "www": 3374,
      "orth": 3375,
      "Ġfour": 3376,
      "plain": 3377,
      "ĠÐ¼ÐµÑĤ": 3378,
      "ÑģÑĤÐ°Ð½Ð¾Ð²": 3379,
      "Ġbehind": 3380,
      "Ð½Ð°ÐºÐ¾": 3381,
      "ĠChatGPT": 3382,
      "cent": 3383,
      "omen": 3384,
      "ĠÐ¿Ð»Ð°": 3385,
      "Ġones": 3386,
      "ÑĢÐ°Ð¶": 3387,
      "ĠÐ¾Ð½Ð¸": 3388,
      "izations": 3389,
      "versity": 3390,
      "Ġcurrently": 3391,
      "Ġdescribe": 3392,
      "icrosoft": 3393,
      "html": 3394,
      "uce": 3395,
      "ndom": 3396,
      "oud": 3397,
      "Ġfire": 3398,
      "Ġbooks": 3399,
      "Ð½Ð³": 3400,
      "ÑĮÑĤÐµ": 3401,
      "Ġadapt": 3402,
      "Ġrefer": 3403,
      "Ġsurv": 3404,
      "ĠÐ»ÑİÐ´": 3405,
      "Ġtips": 3406,
      "Ġhost": 3407,
      "imately": 3408,
      "ĠCal": 3409,
      "Ġvirtual": 3410,
      "Ġseen": 3411,
      "izz": 3412,
      "Ġarch": 3413,
      "Ð´ÐµÐ»Ð°": 3414,
      "Ġexpress": 3415,
      "hips": 3416,
      "inking": 3417,
      "itions": 3418,
      "Ġearth": 3419,
      "Ġdeveloped": 3420,
      "Ġrandom": 3421,
      "ĠÑĤÐµÑħ": 3422,
      "medi": 3423,
      "ĠJavaScript": 3424,
      "My": 3425,
      "eed": 3426,
      "org": 3427,
      "Ð¸Ð»": 3428,
      "ÑĢÑı": 3429,
      "Ġlives": 3430,
      "ÑĢÐ°Ð½Ð¸": 3431,
      "Ġproduce": 3432,
      "Ġoperating": 3433,
      "Ġprior": 3434,
      "Ġstrength": 3435,
      "but": 3436,
      "Ġfund": 3437,
      "Ġmom": 3438,
      "aly": 3439,
      "Ġred": 3440,
      "Ð²Ð¾": 3441,
      "Ġoverall": 3442,
      "Ġmatter": 3443,
      "Ġdownload": 3444,
      "Ġcomplexity": 3445,
      "ĠÑģÐ¿Ð¾ÑģÐ¾Ð±": 3446,
      "ĠÐ¾Ð¿ÑĢÐµÐ´": 3447,
      "ĠÐ´ÐµÐ»Ð°": 3448,
      "Ġschool": 3449,
      "ĠÐ´Ð¾Ð»Ð¶": 3450,
      "volution": 3451,
      "ĊĊĠ": 3452,
      "ured": 3453,
      "ĠÐ¼Ð¾": 3454,
      "ude": 3455,
      "ĠOnce": 3456,
      "Ġactive": 3457,
      "Ġdistribut": 3458,
      "Ġletter": 3459,
      "ront": 3460,
      "Ġmedical": 3461,
      "Ġsurface": 3462,
      "Ġdatabase": 3463,
      ".,": 3464,
      "Ġpan": 3465,
      "ÑģÑģÐ¸": 3466,
      "ĠMay": 3467,
      "Ġrow": 3468,
      "rame": 3469,
      "Ġlonger": 3470,
      "Ġactivities": 3471,
      "Ġsituation": 3472,
      "Ġsummary": 3473,
      "ÑĦÐ¾ÑĢÐ¼Ð°": 3474,
      "OS": 3475,
      "ech": 3476,
      "Ġbar": 3477,
      "ĠÐ¾Ð³": 3478,
      "Ġmatch": 3479,
      "ructions": 3480,
      "Ð²ÐµÐ´": 3481,
      "AD": 3482,
      "TH": 3483,
      "US": 3484,
      "Ġtreat": 3485,
      "Ġtowards": 3486,
      "Ġnut": 3487,
      "ĠOr": 3488,
      "avig": 3489,
      "Ġoperations": 3490,
      "Ġsymbol": 3491,
      "Ġeyes": 3492,
      "aim": 3493,
      "Â°": 3494,
      "alse": 3495,
      "ÑĢÐ¾Ðº": 3496,
      "Ġyoung": 3497,
      "unction": 3498,
      "ÐµÐ½Ð°": 3499,
      "ocol": 3500,
      "Ġperspect": 3501,
      "ĠÐ¿ÑĢÐ¾ÑĨÐµ": 3502,
      "Ġprocesses": 3503,
      "ĠÐ¸ÑģÐ¿Ð¾Ð»ÑĮÐ·Ñĥ": 3504,
      "Ġcirc": 3505,
      "do": 3506,
      "Ð½ÑĥÑĤ": 3507,
      "elt": 3508,
      "ĠInt": 3509,
      "unk": 3510,
      "ÑĢÐ¸ÑĤ": 3511,
      "Ġclose": 3512,
      "Ġdifferences": 3513,
      "redients": 3514,
      "ĠÐ¿Ð¾Ð¼Ð¾Ñī": 3515,
      "Ġcultural": 3516,
      "40": 3517,
      "Ġnight": 3518,
      "Ġstru": 3519,
      "odes": 3520,
      "ĠÐ±ÑĭÐ»": 3521,
      "Ġcommunication": 3522,
      "ians": 3523,
      "ĠÐ¯": 3524,
      "Ġgot": 3525,
      "istics": 3526,
      "Ġimm": 3527,
      "ĠÑĩÐµÐ¼": 3528,
      "sole": 3529,
      "ĠÑĢÐ°Ñģ": 3530,
      "Ġoffers": 3531,
      "Ġconfig": 3532,
      "selves": 3533,
      "ister": 3534,
      "Ġheat": 3535,
      "Ġsuit": 3536,
      "Ġaddition": 3537,
      "Ġnoise": 3538,
      "Ġcomplete": 3539,
      "Ð¸Ð¼Ð¾": 3540,
      "Ġguit": 3541,
      "Ġvisual": 3542,
      "AM": 3543,
      "List": 3544,
      "Se": 3545,
      "fect": 3546,
      "ÐµÑĢÐ°": 3547,
      "Ġpow": 3548,
      "Ġbring": 3549,
      "ÑģÑĤÑĢÐ¾Ð¹": 3550,
      "Ġancient": 3551,
      "hers": 3552,
      "ĠLe": 3553,
      "ager": 3554,
      "ÑīÑĳ": 3555,
      "Ġemb": 3556,
      "Ġadvice": 3557,
      "Ġinfin": 3558,
      "dom": 3559,
      "ipp": 3560,
      "Ġing": 3561,
      "ĠÐķÑģÐ»Ð¸": 3562,
      "ĠÐ¿Ð¾Ð·": 3563,
      "ĠÑģÐ»Ð¾Ð¶": 3564,
      "ĠGree": 3565,
      "Ġmodify": 3566,
      "Ġequal": 3567,
      "Ġmathematical": 3568,
      "ny": 3569,
      "ĠÐĹ": 3570,
      "Ġder": 3571,
      "Ġdim": 3572,
      "Ð¾Ð±ÑħÐ¾Ð´": 3573,
      "ÑĨÐ¸Ð°Ð»ÑĮ": 3574,
      "Ð¾ÑĤÐ¾Ð²": 3575,
      "fully": 3576,
      "Ġsolar": 3577,
      "ĠÐ¸ÑģÐ¿Ð¾Ð»ÑĮÐ·Ð¾Ð²Ð°ÑĤÑĮ": 3578,
      "Ġphysics": 3579,
      "14": 3580,
      "Re": 3581,
      "iet": 3582,
      "ners": 3583,
      "sing": 3584,
      "Ġ][": 3585,
      "ero": 3586,
      "Ġbad": 3587,
      "Ġlab": 3588,
      "Ġreact": 3589,
      "ints": 3590,
      "Ġconscious": 3591,
      "Ġbuilt": 3592,
      "ĠÐ¼Ð¾Ð³Ñĥ": 3593,
      "Ġelectric": 3594,
      "ĠWeb": 3595,
      "Ġload": 3596,
      "force": 3597,
      "Ġdrive": 3598,
      "Ġscreen": 3599,
      "13": 3600,
      "oad": 3601,
      "what": 3602,
      "where": 3603,
      "ÑĢÐ¾Ð±": 3604,
      "ster": 3605,
      "olf": 3606,
      "osed": 3607,
      "Ð¾Ð½Ð°": 3608,
      "ÐºÐ¾ÑĤÐ¾ÑĢÑĭ": 3609,
      "Ġdecision": 3610,
      "how": 3611,
      "ma": 3612,
      "sv": 3613,
      "ina": 3614,
      "Ġwrong": 3615,
      "ÑĩÐµÐ½ÑĮ": 3616,
      "ĠÐ¸ÑģÑĤÐ¾": 3617,
      "resp": 3618,
      "Ġrot": 3619,
      "Ġeval": 3620,
      "ÑĩÐ¸ÑĤÐ°": 3621,
      "Ġinterested": 3622,
      "Ġinvolve": 3623,
      "ĠYour": 3624,
      "Ġallowing": 3625,
      "Ġissue": 3626,
      "Ġparticularly": 3627,
      "Ġbatter": 3628,
      "Ġearly": 3629,
      "Ġwindow": 3630,
      "Ġincor": 3631,
      "yg": 3632,
      "Ġut": 3633,
      "ĠÐ§": 3634,
      "Ð¾Ð¼Ð¸": 3635,
      "ÐµÐ½Ð¸ÐµÐ¼": 3636,
      "Ġsynt": 3637,
      "ĠÐ·Ð°Ð²Ð¸": 3638,
      "Ġdevelopers": 3639,
      "Ġrecipe": 3640,
      "Ġcalculate": 3641,
      "Ġappear": 3642,
      "gest": 3643,
      "min": 3644,
      "hel": 3645,
      "Ġbo": 3646,
      "Ġlack": 3647,
      "rage": 3648,
      "ĠÐ¸Ð¼": 3649,
      "cket": 3650,
      "Ġgenerally": 3651,
      "Ġbackground": 3652,
      "Ġguid": 3653,
      "Ġproducts": 3654,
      "Ġaccurate": 3655,
      "na": 3656,
      "Ð°ÑĤÑĮ": 3657,
      "Ġdream": 3658,
      "Ð»ÐµÐ¹": 3659,
      "ĠÐ±Ñĥ": 3660,
      "Ġcreates": 3661,
      "ĠÐ¾Ð±ÑĥÑĩ": 3662,
      "Ġparts": 3663,
      "epend": 3664,
      "mar": 3665,
      "sp": 3666,
      "Ġâ": 3667,
      "Ġsat": 3668,
      "icial": 3669,
      "ÑĥÑģ": 3670,
      "ÑĢÐ°Ñı": 3671,
      "ĠÐºÐ»Ð°": 3672,
      "Ġimag": 3673,
      "ĠÑĤÐ¾Ð»ÑĮÐºÐ¾": 3674,
      "ĠÐ½ÐµÐ¹": 3675,
      "iction": 3676,
      "Ġconflict": 3677,
      "Ġcontains": 3678,
      "Ġlayer": 3679,
      "Ġgreen": 3680,
      "ĠHTML": 3681,
      "ÑĥÐ½Ðº": 3682,
      "Add": 3683,
      "af": 3684,
      "Ġfight": 3685,
      "Ġdom": 3686,
      "Ġchat": 3687,
      "ivil": 3688,
      "ĠÑĩÐ¸Ñģ": 3689,
      "ĠÐ¾Ð±Ð»Ð°": 3690,
      "Ġactions": 3691,
      "iddle": 3692,
      "ÑģÑĤÑĥÐ¿": 3693,
      "Ġtax": 3694,
      "Ġsleep": 3695,
      "Ð¸ÑĤÐµ": 3696,
      "Ġinnov": 3697,
      "Ð½Ð¸Ð¹": 3698,
      "Ġworth": 3699,
      "Ġ25": 3700,
      "ÑģÐºÐ¸Ð¹": 3701,
      "ĠOn": 3702,
      "Ġprec": 3703,
      "ĠÑĦÐ¾ÑĢ": 3704,
      "Ġdefine": 3705,
      "Ġcentury": 3706,
      "----------------": 3707,
      "21": 3708,
      "lt": 3709,
      "tings": 3710,
      "Ġtotal": 3711,
      "Ġlater": 3712,
      "Ġang": 3713,
      "irl": 3714,
      "ÑħÐ°": 3715,
      "plot": 3716,
      "ĠÐ½ÐµÐ¾Ð±ÑħÐ¾Ð´": 3717,
      "ÑĢÑĥÐ´": 3718,
      "ensity": 3719,
      "Ġaim": 3720,
      "Ġsn": 3721,
      "Ġflex": 3722,
      "Ġmut": 3723,
      "Ġnames": 3724,
      "aming": 3725,
      "plies": 3726,
      "Ð±Ð¾ÑĢ": 3727,
      "Ġ11": 3728,
      "Ġscore": 3729,
      "Ġdise": 3730,
      "Ġdetailed": 3731,
      "However": 3732,
      "Ġremember": 3733,
      "bre": 3734,
      "Ġter": 3735,
      "itect": 3736,
      "ĠPr": 3737,
      "Ġshape": 3738,
      "ustain": 3739,
      "ĠÐ·Ð°Ðº": 3740,
      "arian": 3741,
      "ÑģÑĤÐ°Ð²Ð»Ñı": 3742,
      "Ġwhole": 3743,
      "Ġefficiency": 3744,
      "ĠÑĢÐ°Ð·Ð»Ð¸Ñĩ": 3745,
      "Ġdiet": 3746,
      "Ġculture": 3747,
      "Ġsafe": 3748,
      "Ġpressure": 3749,
      "ĠAmerican": 3750,
      "Ġgraphics": 3751,
      "Ġsmooth": 3752,
      "Ġcondition": 3753,
      "Note": 3754,
      "TP": 3755,
      "gre": 3756,
      "Ġwarm": 3757,
      "Ġmel": 3758,
      "Ġbud": 3759,
      "arily": 3760,
      "Ġrate": 3761,
      "Ð¾Ð´Ñĭ": 3762,
      "cles": 3763,
      "ended": 3764,
      "Ġgrav": 3765,
      "Ġstudents": 3766,
      "Ġtopic": 3767,
      "Ġproperty": 3768,
      "Ġfamous": 3769,
      "Ġactivity": 3770,
      "Ġjourney": 3771,
      "])": 3772,
      "pass": 3773,
      "ino": 3774,
      "Ġgold": 3775,
      "elcome": 3776,
      "ĠÐ¿Ðµ": 3777,
      "ĠÐ¿Ð¾ÐºÐ°": 3778,
      "ĠÑģÐ´ÐµÐ»Ð°": 3779,
      "duct": 3780,
      "Ġoutside": 3781,
      "Ġkeyboard": 3782,
      "Ġeverything": 3783,
      "Ġcommonly": 3784,
      "Ġconnection": 3785,
      "Ġveget": 3786,
      "Ġadvantage": 3787,
      "Ġpiece": 3788,
      "Ġethical": 3789,
      "ÐºÐ»ÑİÑĩÐ°": 3790,
      "df": 3791,
      "Ġid": 3792,
      "ĠðŁ": 3793,
      "Ġhold": 3794,
      "uration": 3795,
      "ĠÑĢÐ°ÑģÐ¿": 3796,
      "ĠÐ°Ð»": 3797,
      "Ġsimpl": 3798,
      "Ġflu": 3799,
      "Ð´Ð¸Ð½": 3800,
      "Ġ2023": 3801,
      "Ġfields": 3802,
      "Ġpackage": 3803,
      "Are": 3804,
      "miss": 3805,
      "wise": 3806,
      "Ð£": 3807,
      "Ð¸Ð±": 3808,
      "Ġever": 3809,
      "ili": 3810,
      "Ġforward": 3811,
      "ĠÐ½ÐµÑĤ": 3812,
      "Ð·Ð½Ð°": 3813,
      "ĠÐ¾Ð±ÑĢÐ°Ð·": 3814,
      "Ġprice": 3815,
      "ĠStart": 3816,
      "Ġsave": 3817,
      "Ġartificial": 3818,
      "Ġguitar": 3819,
      "32": 3820,
      "ged": 3821,
      "script": 3822,
      "Ġ..": 3823,
      "het": 3824,
      "orial": 3825,
      "Ġbir": 3826,
      "Ð»ÐµÐ½Ð¸Ðµ": 3827,
      "Ġheight": 3828,
      "ection": 3829,
      "overed": 3830,
      "Ġeffects": 3831,
      "Thanks": 3832,
      "Ġtopics": 3833,
      "Ġgreater": 3834,
      "Ġassociated": 3835,
      "Ġtaste": 3836,
      "64": 3837,
      "II": 3838,
      "`.": 3839,
      "wh": 3840,
      "ÐŃ": 3841,
      "Ġtaken": 3842,
      "Ġcross": 3843,
      "Ġded": 3844,
      "Ġyet": 3845,
      "Ġreplace": 3846,
      "rix": 3847,
      "ĠMan": 3848,
      "ĠNo": 3849,
      "acity": 3850,
      "lock": 3851,
      "Ġspecies": 3852,
      "Ġvariables": 3853,
      "ĠÐ¶Ð¸": 3854,
      "ĠÐ¸Ð½ÑĦÐ¾ÑĢÐ¼Ð°": 3855,
      "Ġdecisions": 3856,
      "Ġrelationships": 3857,
      "Ġchildren": 3858,
      "Ġstrategy": 3859,
      "RL": 3860,
      "div": 3861,
      "gram": 3862,
      "âł": 3863,
      "Ġtim": 3864,
      "Ġop": 3865,
      "Ġmaxim": 3866,
      "Ġcreation": 3867,
      "Ġquite": 3868,
      "Ġspend": 3869,
      "astic": 3870,
      "Ġactually": 3871,
      "Ġprograms": 3872,
      "ĠĠĠĠĠĠĠĠĠĠĠĠĠĠĠĠĠĠĠĠĠĠĠĠ": 3873,
      "Ġlaws": 3874,
      "Ġmotiv": 3875,
      "60": 3876,
      "IM": 3877,
      "Ġboard": 3878,
      "Ġdanger": 3879,
      "asy": 3880,
      "Ġhot": 3881,
      "Ġnavig": 3882,
      "ĠThat": 3883,
      "Ġvoice": 3884,
      "Ġbutton": 3885,
      "ountain": 3886,
      "ĠÐ¾Ð±ÑĢÐ°": 3887,
      "Ġentire": 3888,
      "Ġcarb": 3889,
      "Ġdemon": 3890,
      "ĠÑģÐµÐ±Ñı": 3891,
      "EN": 3892,
      "eff": 3893,
      "Ġcu": 3894,
      "Ġcore": 3895,
      "ÐµÐ´": 3896,
      "ourage": 3897,
      "Ġfive": 3898,
      "amer": 3899,
      "Ġaspect": 3900,
      "urance": 3901,
      "ĠÐ¾ÑĩÐµÐ½ÑĮ": 3902,
      "ĠÐ´ÐµÐ¹": 3903,
      "ĠRed": 3904,
      "Ġcompared": 3905,
      "ĠÐ¿ÑĢÐ¸Ð¼ÐµÑĢ": 3906,
      "phas": 3907,
      "Ġfix": 3908,
      "Ġfeeling": 3909,
      "Ġsurround": 3910,
      "Ġdirectly": 3911,
      "ĠCheck": 3912,
      "ype": 3913,
      "Ġult": 3914,
      "ĠÐ£": 3915,
      "ÑģÐ¾Ð²": 3916,
      "Ġcomfort": 3917,
      "Ġseem": 3918,
      "Ġcompan": 3919,
      "ĠÑįÑĤÐ¾Ð¼": 3920,
      "Ġ</": 3921,
      "Ġreflect": 3922,
      "Ġweek": 3923,
      "Ġarchitect": 3924,
      "ĠÐ¿ÑĢÐ¾ÑĨÐµÑģÑģ": 3925,
      "Cl": 3926,
      "oon": 3927,
      "uzz": 3928,
      "Ġwood": 3929,
      "Ġbox": 3930,
      "Ġreality": 3931,
      "Ġbeaut": 3932,
      "Ð¾Ð»Ð¾Ð³Ð¸": 3933,
      "Ġsequence": 3934,
      "Ġspeak": 3935,
      "ender": 3936,
      "Ġthemselves": 3937,
      "Ð³Ð¾ÑĢÐ¸ÑĤ": 3938,
      "Ð½ÐµÐµ": 3939,
      "Ġrefers": 3940,
      "Ġupdate": 3941,
      "Ġaudience": 3942,
      "Ġdamage": 3943,
      "99": 3944,
      "ĠÐĽ": 3945,
      "Ġsustain": 3946,
      "Ġcup": 3947,
      "Ġreasons": 3948,
      "ÑģÑĤÑĢÑĥ": 3949,
      "Ð´Ð½Ð°ÐºÐ¾": 3950,
      "Ġprote": 3951,
      "ffee": 3952,
      "Ð¾Ð¶Ð°": 3953,
      "ĠÐµÑīÑĳ": 3954,
      "ÑĳÐ¼": 3955,
      "Ġthroughout": 3956,
      "Ġcomputing": 3957,
      "Ġdemand": 3958,
      "ĠÐ±Ð¾Ð»ÑĮÑĪÐµ": 3959,
      "Ġinfluence": 3960,
      "Ġprivacy": 3961,
      ".)": 3962,
      "pic": 3963,
      "Ġhalf": 3964,
      "Ġdeath": 3965,
      "Ð½Ð¸ÐºÐ°": 3966,
      "Ġrecord": 3967,
      "Ġchallenging": 3968,
      "Ġgroups": 3969,
      "Ġrelationship": 3970,
      "Ġnegative": 3971,
      "Ġfully": 3972,
      "ĠÐ½ÐµÑģÐºÐ¾Ð»ÑĮÐºÐ¾": 3973,
      "ges": 3974,
      "ky": 3975,
      "Ðĵ": 3976,
      "ising": 3977,
      "Ġfaster": 3978,
      "ÑıÑħ": 3979,
      "Ġsuff": 3980,
      "Ġspecif": 3981,
      "Ġeveryone": 3982,
      "ĠÐ¼Ð¾Ð¶ÐµÑĤÐµ": 3983,
      "Ġproperly": 3984,
      "Ġblood": 3985,
      "Ġsuggestions": 3986,
      "Ġmonth": 3987,
      "ĠÐ´Ð°Ð½Ð½ÑĭÑħ": 3988,
      "HT": 3989,
      "PS": 3990,
      "fact": 3991,
      "Ðĳ": 3992,
      "orage": 3993,
      "ams": 3994,
      "ĠAt": 3995,
      "Ġled": 3996,
      "ĠWar": 3997,
      "ĠFr": 3998,
      "Ġ---": 3999,
      "ĠName": 4000,
      "Ġevol": 4001,
      "ĠÐ»ÑĥÑĩ": 4002,
      "Ġchem": 4003,
      "rench": 4004,
      "Ġdigital": 4005,
      "ĠÐ¸Ð½ÑĤÐµÑĢÐµÑģ": 4006,
      "untu": 4007,
      "ED": 4008,
      "met": 4009,
      "nam": 4010,
      "size": 4011,
      "Ġhol": 4012,
      "umb": 4013,
      "ĠSer": 4014,
      "ĠPC": 4015,
      "osing": 4016,
      "ĠNe": 4017,
      "Ġindex": 4018,
      "ĠÐ±ÑĭÐ»Ð¾": 4019,
      "ĠÐ²Ð°ÑĪ": 4020,
      "Ġconsequences": 4021,
      "button": 4022,
      "fer": 4023,
      "write": 4024,
      "itation": 4025,
      "Ð½ÐµÐ¹": 4026,
      "Ġly": 4027,
      "oding": 4028,
      "ĠCol": 4029,
      "Ð¿ÑĢÐ¸Ð¼ÐµÑĢ": 4030,
      "ached": 4031,
      "Ġdesired": 4032,
      "Ġreference": 4033,
      "ĠÐ¿ÑĢÐ¾Ð±": 4034,
      "Ġimplementation": 4035,
      "Ġsafety": 4036,
      "ĠÑĩÐµÐ»Ð¾Ð²ÐµÐº": 4037,
      "ĠÑįÑĤÐ¾Ð³Ð¾": 4038,
      "ography": 4039,
      "18": 4040,
      "25": 4041,
      "Ġlif": 4042,
      "ĠAre": 4043,
      "Ġdead": 4044,
      "ÑĤÐµÑĢÐ¸": 4045,
      "Ġrise": 4046,
      "Ð¾Ð¼Ñĥ": 4047,
      "Ġplot": 4048,
      "apan": 4049,
      "Ġhowever": 4050,
      "Ġinterface": 4051,
      "Ġequation": 4052,
      "Ġmovement": 4053,
      "Ġmagic": 4054,
      "24": 4055,
      "AT": 4056,
      "HE": 4057,
      "pire": 4058,
      "Ġfru": 4059,
      "Ġhor": 4060,
      "ĠÐ¾Ðº": 4061,
      "ops": 4062,
      "ÑĪÐµÐ½Ð¸Ñı": 4063,
      "Ġclient": 4064,
      "Ġcolors": 4065,
      "Ġcheese": 4066,
      "Ġrespond": 4067,
      "ĠDevelop": 4068,
      "Ġstrugg": 4069,
      "ok": 4070,
      "oes": 4071,
      "ole": 4072,
      "att": 4073,
      "eration": 4074,
      "Ġcro": 4075,
      "arr": 4076,
      "Ġthread": 4077,
      "iles": 4078,
      "ĠCould": 4079,
      "essage": 4080,
      "ively": 4081,
      "ĠÐ´Ñĥ": 4082,
      "ĠRes": 4083,
      "aced": 4084,
      "Ġemerg": 4085,
      "Ġsetting": 4086,
      "Ġactual": 4087,
      "Ġinvolved": 4088,
      "Ġhealthy": 4089,
      "Ġlegal": 4090,
      "Ġmention": 4091,
      "string": 4092,
      "ĠAfter": 4093,
      "ored": 4094,
      "emember": 4095,
      "Ġsec": 4096,
      "Ġplant": 4097,
      "agraph": 4098,
      "Ġsche": 4099,
      "Ð»ÐµÐºÑĤ": 4100,
      "ÐµÐ»ÐµÐ½": 4101,
      "ĠÐĿÐµ": 4102,
      "Ġrecommended": 4103,
      "Ġbeliefs": 4104,
      "Ġhistorical": 4105,
      "Ġframework": 4106,
      "With": 4107,
      "gar": 4108,
      "ison": 4109,
      "Ġban": 4110,
      "icle": 4111,
      "Ġsty": 4112,
      "Ġchann": 4113,
      "ĠDisc": 4114,
      "Ġclimate": 4115,
      "Ġaccept": 4116,
      "Ġnovel": 4117,
      "ĠÑģÑĤÑĢÐ°": 4118,
      "Ġexercise": 4119,
      "Ġpair": 4120,
      "idth": 4121,
      "Ġasking": 4122,
      "Ð¾Ð²Ð¾ÑĢÐ¸": 4123,
      "Ġhair": 4124,
      "ĠÐºÐ¾Ð³Ð´Ð°": 4125,
      "Ġvi": 4126,
      "ement": 4127,
      "Ð±Ð°": 4128,
      "ffic": 4129,
      "ÑģÑĤÐ°Ð²": 4130,
      "Ġremove": 4131,
      "ĠÐ¿ÑĢÐ¾Ð²": 4132,
      "Ġcenter": 4133,
      "Ġsalt": 4134,
      "Ġbalance": 4135,
      "Ġexplanation": 4136,
      "Ġbudget": 4137,
      "uel": 4138,
      "ÑĤÑĢÐ¸": 4139,
      "Ġfair": 4140,
      "Ġfavor": 4141,
      "iced": 4142,
      "Ġlic": 4143,
      "Ġquery": 4144,
      "Ġmanip": 4145,
      "Ġupon": 4146,
      "ÐºÐ°Ð·Ð°": 4147,
      "Ġreli": 4148,
      "ÑĳÑĤ": 4149,
      "Ġbecame": 4150,
      "ĠÐºÐ¾ÑĤÐ¾ÑĢÐ°Ñı": 4151,
      "Ġapproxim": 4152,
      "Ġextrem": 4153,
      "ĠÐ¸ÑģÐ¿Ð¾Ð»ÑĮÐ·Ð¾Ð²Ð°": 4154,
      "Ġfinal": 4155,
      "ÑĢÐ¾Ð²Ð°Ð½": 4156,
      "Ġsentence": 4157,
      "Ġmanagement": 4158,
      "Ġmoment": 4159,
      "su": 4160,
      "ony": 4161,
      "Ġcook": 4162,
      "Ġnode": 4163,
      "Ġvul": 4164,
      "Ð±Ñĭ": 4165,
      "ĠÐ´Ð¾Ð±": 4166,
      "ĠEl": 4167,
      "ĠÐ½Ð°ÑĩÐ°": 4168,
      "Ð¶Ð´Ñĥ": 4169,
      "ĠRoman": 4170,
      "ĠÑĦÑĥÐ½Ðº": 4171,
      "ÐŁÑĢÐ¸": 4172,
      "####": 4173,
      "Ġlibraries": 4174,
      "Ġpreferences": 4175,
      "CT": 4176,
      "itting": 4177,
      "Ġthreat": 4178,
      "term": 4179,
      "opt": 4180,
      "Ð»Ð¸ÑĩÐ¸": 4181,
      "ĠÑĥÑģ": 4182,
      ",,,,": 4183,
      "Ġcombination": 4184,
      "Ġresponses": 4185,
      "Ġalternative": 4186,
      "uracy": 4187,
      "Ġparameters": 4188,
      "Or": 4189,
      "me": 4190,
      "Ġbow": 4191,
      "Ġden": 4192,
      "asc": 4193,
      "ÑıÑģ": 4194,
      "ĠTry": 4195,
      "ÑģÑĤÑĢÐ¾": 4196,
      "Ġsup": 4197,
      "illing": 4198,
      "Ð³Ñĥ": 4199,
      "inecraft": 4200,
      "ĠDef": 4201,
      "Ġenem": 4202,
      "ĠGit": 4203,
      "Ġteach": 4204,
      "ÑĢÐ¾ÑĪ": 4205,
      "Ġconsult": 4206,
      "ĠÐ²ÑĭÑģ": 4207,
      "ĠÑĤÐµÐº": 4208,
      "Ġlisten": 4209,
      "Ġreturns": 4210,
      "ĠCont": 4211,
      "mosp": 4212,
      "Ġeducation": 4213,
      "Ġtur": 4214,
      "Ġtree": 4215,
      "outh": 4216,
      "Ġmer": 4217,
      "asure": 4218,
      "Ġthird": 4219,
      "Ġgirl": 4220,
      "ÑĩÐµÐ½Ð¸Ðµ": 4221,
      "quality": 4222,
      "erson": 4223,
      "Ġcreatures": 4224,
      "Ġtrust": 4225,
      "ÑĳÐ½": 4226,
      "Ġforms": 4227,
      "Ġtechnologies": 4228,
      "Ġmagnet": 4229,
      "sych": 4230,
      "By": 4231,
      "ET": 4232,
      "Some": 4233,
      "pare": 4234,
      "rate": 4235,
      "vide": 4236,
      "world": 4237,
      "Ġtables": 4238,
      "rel": 4239,
      "Ġmit": 4240,
      "ÑĢÐµÑĤ": 4241,
      "Ġhouse": 4242,
      "ÑĥÑĩÐ°": 4243,
      "ried": 4244,
      "Ð¾Ð³Ð°": 4245,
      "Ġspread": 4246,
      "Ġnumer": 4247,
      "Ġemphas": 4248,
      "Ġwanted": 4249,
      "Ġsubst": 4250,
      "ccording": 4251,
      "Ġprinciples": 4252,
      ":**": 4253,
      "Create": 4254,
      "Im": 4255,
      "Ġcivil": 4256,
      "itches": 4257,
      "Ġgram": 4258,
      "ĠÐ²ÐºÐ»ÑİÑĩÐ°": 4259,
      "Ġshap": 4260,
      "Ð²Ð°ÐµÑĤ": 4261,
      "Ġapply": 4262,
      "ĠâĢĵ": 4263,
      "Ġcustomer": 4264,
      "idden": 4265,
      "Ġsupply": 4266,
      "down": 4267,
      "oe": 4268,
      "spe": 4269,
      "Ġill": 4270,
      "atives": 4271,
      "Ġbread": 4272,
      "alle": 4273,
      "ĠÑģÐº": 4274,
      "ÐµÐ½Ð½Ð¾": 4275,
      "Ġkn": 4276,
      "Ġadding": 4277,
      "Ġexperiment": 4278,
      "Ġflat": 4279,
      "Ġaccuracy": 4280,
      "type": 4281,
      "ĠÐ¶Ð¸Ð·Ð½Ð¸": 4282,
      "ĠÐ·Ð°Ð²Ð¸ÑģÐ¸": 4283,
      "!\"": 4284,
      "En": 4285,
      "Open": 4286,
      "bit": 4287,
      "can": 4288,
      "fra": 4289,
      "tom": 4290,
      "inct": 4291,
      "ÑĭÐµ": 4292,
      "ĠSw": 4293,
      "rie": 4294,
      "Ġ13": 4295,
      "Ġfeature": 4296,
      "aily": 4297,
      "cont": 4298,
      "icken": 4299,
      "Ġgeneration": 4300,
      "ĠÑĤÐ°ÐºÐ¸Ðµ": 4301,
      "ĠÐ²Ð°Ð¶": 4302,
      "Ġsky": 4303,
      "ÑħÐ¾Ð´Ð¸ÑĤ": 4304,
      "Ġ},": 4305,
      "ucle": 4306,
      "Ġresponsible": 4307,
      "Ġinfluen": 4308,
      "Ġopportunities": 4309,
      "Ġconcerns": 4310,
      "Ġvulner": 4311,
      "iation": 4312,
      "Ð°Ð·": 4313,
      "Ġwelcome": 4314,
      "Ġlines": 4315,
      "ĠInd": 4316,
      "Ġconclusion": 4317,
      "ĠSu": 4318,
      "ĠÐ¼Ñĥ": 4319,
      "ĠData": 4320,
      "Ġatmosp": 4321,
      "Ġcreative": 4322,
      "Ġperfect": 4323,
      "Ġimportance": 4324,
      "Ġfollows": 4325,
      "Ġadvent": 4326,
      "ĠQu": 4327,
      "Ġeggs": 4328,
      "ĠÑģÐ»ÑĥÑĩÐ°Ðµ": 4329,
      "Ġevalu": 4330,
      "OR": 4331,
      "host": 4332,
      "erate": 4333,
      "Ġcast": 4334,
      "ĠMin": 4335,
      "ĠGet": 4336,
      "ffe": 4337,
      "ĠÐ¾ÑĤÐ½Ð¾": 4338,
      "Ġelectr": 4339,
      "Ġpractices": 4340,
      "Ġadvantages": 4341,
      "ĠÐºÐ¾Ð¼Ð¿ÑĮÑİ": 4342,
      "Ġsecure": 4343,
      "Now": 4344,
      "ae": 4345,
      "dr": 4346,
      "ÐĹ": 4347,
      "Ġaware": 4348,
      "include": 4349,
      "Ġcatch": 4350,
      "orch": 4351,
      "Ð½ÐµÑĤ": 4352,
      "ĠMicrosoft": 4353,
      "ÑĢÐ¸Ð¸": 4354,
      "Ġcredit": 4355,
      "Ġscale": 4356,
      "âĢĶ": 4357,
      "ensions": 4358,
      "Ġapolog": 4359,
      "Ġcomputers": 4360,
      "____": 4361,
      "Ġpassword": 4362,
      "Ġvideos": 4363,
      "Tr": 4364,
      "fig": 4365,
      "ĠÐ¤": 4366,
      "itude": 4367,
      "Ġparent": 4368,
      "Ġmis": 4369,
      "Ġbed": 4370,
      "ĠTw": 4371,
      "plied": 4372,
      "Ġnear": 4373,
      "ĠThen": 4374,
      "Ġ17": 4375,
      "Ġabilities": 4376,
      "ÑģÐºÐ¾Ð³Ð¾": 4377,
      "Ġanyone": 4378,
      "ĠJapan": 4379,
      "Ġinstance": 4380,
      "ĠÐ¿ÑĢÐ¾ÑģÑĤ": 4381,
      "ĠÑĤÐµÐ¼": 4382,
      "ĠÑĢÐ°Ð·ÑĢÐ°Ð±Ð¾ÑĤ": 4383,
      "Ġsolutions": 4384,
      "ception": 4385,
      "Ġexpression": 4386,
      "ĠÐ´ÑĢÑĥÐ³Ð¸Ñħ": 4387,
      "ĠAndroid": 4388,
      "ĠEuropean": 4389,
      "Ġbranch": 4390,
      "Ġdemonstr": 4391,
      "IG": 4392,
      "Let": 4393,
      "`,": 4394,
      "ping": 4395,
      "rist": 4396,
      "eries": 4397,
      "itary": 4398,
      "Ġfan": 4399,
      "Ġmen": 4400,
      "Ġlink": 4401,
      "ether": 4402,
      "ÑĩÐµÐ½": 4403,
      "ĠÑģÑĢÐµÐ´": 4404,
      "Ġseason": 4405,
      "Ġplants": 4406,
      "Ġ-.": 4407,
      "ĠÐ°Ð²": 4408,
      "Ġinstructions": 4409,
      "Ġmedium": 4410,
      "Ġterminal": 4411,
      "While": 4412,
      "Ġmovie": 4413,
      "ĠÐ¢Ð°Ðº": 4414,
      "Name": 4415,
      "most": 4416,
      "pot": 4417,
      "rict": 4418,
      "ÐķÑģÐ»Ð¸": 4419,
      "Ġ,": 4420,
      "Ġ...": 4421,
      "Ġtalk": 4422,
      "ĠAm": 4423,
      "ĠDes": 4424,
      "Ġweak": 4425,
      "ĠFrench": 4426,
      "ĠRust": 4427,
      "Ġkil": 4428,
      "ÑīÐ¸": 4429,
      "Ġclaim": 4430,
      "Ġobtain": 4431,
      "Ġstrings": 4432,
      "Ġmoving": 4433,
      "Ġargument": 4434,
      "ometry": 4435,
      "ĠÑģÑĥÑīÐµÑģÑĤÐ²": 4436,
      "ĠTrans": 4437,
      "ont": 4438,
      "Ġfoot": 4439,
      "Ġphen": 4440,
      "ĠÐ¿ÑĢÐ°Ð²": 4441,
      "Ġstars": 4442,
      "Ġshad": 4443,
      "Ġcontact": 4444,
      "ruction": 4445,
      "Ġapart": 4446,
      "ÑĦÑĦ": 4447,
      "Ġflour": 4448,
      "ĠÐ¿ÑĢÐ¾Ð´Ñĥ": 4449,
      "Who": 4450,
      "Ð¾ÑĩÑĮ": 4451,
      "Ġsounds": 4452,
      "Ġmathematics": 4453,
      "Ġrequests": 4454,
      "Ġprefer": 4455,
      "Ġmotion": 4456,
      "weight": 4457,
      "dir": 4458,
      "yond": 4459,
      "Ġdaily": 4460,
      "ĠTake": 4461,
      "ĠÐ¿Ñĥ": 4462,
      "ÑģÑĤÐµÐ¹": 4463,
      "rive": 4464,
      "ÑİÑģÑĮ": 4465,
      "ĠFinally": 4466,
      "Ġindepend": 4467,
      "Ġrelig": 4468,
      "ĠKeep": 4469,
      "ĠÑĦÐ°Ðº": 4470,
      "Ġeasily": 4471,
      "Ġ80": 4472,
      "Ġcapable": 4473,
      "Ð½Ð¾ÑģÑĤÑĮÑİ": 4474,
      "Ġcultures": 4475,
      "ĠÐ¼ÐµÐ¶Ð´Ñĥ": 4476,
      "ĠÐ¸Ð¼ÐµÐµÑĤ": 4477,
      "Ð§ÑĤÐ¾": 4478,
      "Ġconsciousness": 4479,
      "NA": 4480,
      "].": 4481,
      "rt": 4482,
      "width": 4483,
      "Ð½ÑĮ": 4484,
      "ils": 4485,
      "Ġbeyond": 4486,
      "Ġdecl": 4487,
      "Ġhear": 4488,
      "ĠPer": 4489,
      "ĠLa": 4490,
      "aged": 4491,
      "Ġmode": 4492,
      "ÑĤÐ¸Ñı": 4493,
      "Ġserve": 4494,
      "ĠÐµÑĳ": 4495,
      "Ġassum": 4496,
      "Ġregion": 4497,
      "Ġreport": 4498,
      "Ġpromot": 4499,
      "Ġdirection": 4500,
      "Ġmillion": 4501,
      "ield": 4502,
      "ĠGreek": 4503,
      "iliar": 4504,
      "Ass": 4505,
      "eper": 4506,
      "lib": 4507,
      "run": 4508,
      "Ġtun": 4509,
      "Ð¸Ð¼Ð°": 4510,
      "Ġwin": 4511,
      "Ġfine": 4512,
      "Ġbreat": 4513,
      "alled": 4514,
      "Ġdough": 4515,
      "Ġinj": 4516,
      "room": 4517,
      "used": 4518,
      "etimes": 4519,
      "ÑĥÐ²": 4520,
      "ĠÐ¿Ð¾Ð»ÑĮÐ·": 4521,
      "ÑĢÐ°ÑĤÑĮ": 4522,
      "ĠÐ¼Ð¾Ð´Ðµ": 4523,
      "ĠMod": 4524,
      "ĠÐ°Ð½Ð°": 4525,
      "Ġgenerated": 4526,
      "Ġfactor": 4527,
      "Ġexisting": 4528,
      "Ð¼ÑĭÑģ": 4529,
      "Ġconversation": 4530,
      "ĠÐ½ÑĥÐ¶Ð½Ð¾": 4531,
      "Ġingredients": 4532,
      "friend": 4533,
      "lished": 4534,
      "enge": 4535,
      "Ġpick": 4536,
      "Ġstd": 4537,
      "ĠÑģÐ»": 4538,
      "Ġvill": 4539,
      "Ġnotes": 4540,
      "ÑĤÐ¸ÑĤÐµ": 4541,
      "Ġtraffic": 4542,
      "ÑĦÐµ": 4543,
      "Ġcomplet": 4544,
      "Ġremov": 4545,
      "Ġpopulation": 4546,
      "Ġreducing": 4547,
      "Ġdeli": 4548,
      "Ġplatforms": 4549,
      "ĠGermany": 4550,
      "On": 4551,
      "table": 4552,
      "uations": 4553,
      "Ġwall": 4554,
      "Ġfail": 4555,
      "Ġmi": 4556,
      "Ġmaster": 4557,
      "Ð¼Ð¾ÑĤ": 4558,
      "ÑĩÐµÐ½Ð¸Ñı": 4559,
      "Ġstar": 4560,
      "Ġstress": 4561,
      "ĠÑģÐ»ÐµÐ´": 4562,
      "Ġseems": 4563,
      "Ġnothing": 4564,
      "Ġund": 4565,
      "ĠGu": 4566,
      "ĠJust": 4567,
      "....": 4568,
      "ĠKing": 4569,
      "Ġlocated": 4570,
      "Ġguide": 4571,
      "Ġaccording": 4572,
      "Ġextra": 4573,
      "Ð»ÑĥÐ¹": 4574,
      "ĠUni": 4575,
      "Ġstructures": 4576,
      "ĠÐ²ÑģÑĳ": 4577,
      "Ð¾Ð¶Ð°Ð»ÑĥÐ¹": 4578,
      "->": 4579,
      "200": 4580,
      "gs": 4581,
      "vas": 4582,
      "Ġbound": 4583,
      "alax": 4584,
      "ÑıÐ¼": 4585,
      "amb": 4586,
      "though": 4587,
      "Ð¾Ð´Ð¸": 4588,
      "ĠLear": 4589,
      "Ġmyth": 4590,
      "Ġexpert": 4591,
      "ĠÑĤÐ°ÐºÐ¸Ñħ": 4592,
      "ÑĪÐ¸Ð½": 4593,
      "Ġcoffee": 4594,
      "ÑĩÐµÑģÐºÐ¸Ðµ": 4595,
      "Ġhumanity": 4596,
      "Ġenter": 4597,
      "ĠÐ¿Ð¾Ð»Ð¸": 4598,
      "ĠÐ²Ð¸Ð´Ðµ": 4599,
      "Ġstrategies": 4600,
      "Ġphenomen": 4601,
      "45": 4602,
      "ait": 4603,
      "buntu": 4604,
      "ike": 4605,
      "isms": 4606,
      "level": 4607,
      "Ġdou": 4608,
      "Ġeat": 4609,
      "Ð¼ÐµÑĤ": 4610,
      "Ð²Ð¾Ð¹": 4611,
      "Ġstorage": 4612,
      "Ġitem": 4613,
      "ĠÐºÑĢÐ°": 4614,
      "ĠDiff": 4615,
      "Ġtruth": 4616,
      "ÑĩÐµÑģÑĤÐ²Ð¾": 4617,
      "Ġappre": 4618,
      "earch": 4619,
      "Ġcover": 4620,
      "ĠÑĦÐ¸": 4621,
      "Ð¾ÑģÑĮ": 4622,
      "ÑģÑĤÐ¾Ð¸ÑĤ": 4623,
      "Ġpotentially": 4624,
      "ĠÐ¿Ð¾Ð¼Ð¾ÑĩÑĮ": 4625,
      "ĠÐļÐ°Ðº": 4626,
      "poses": 4627,
      "Ġlinear": 4628,
      "Ġliter": 4629,
      "Ġengineering": 4630,
      "Ġmilk": 4631,
      "Ġmechanics": 4632,
      "Ġbecomes": 4633,
      "Ġsuitable": 4634,
      "Ð¾Ð¶Ð°Ð»ÑĥÐ¹ÑģÑĤÐ°": 4635,
      "frame": 4636,
      "var": 4637,
      "Ġ]": 4638,
      "inks": 4639,
      "Ð¾ÑĤÐµ": 4640,
      "Ġtheories": 4641,
      "Ġmist": 4642,
      "Ġmental": 4643,
      "ĠAll": 4644,
      "ĠCSS": 4645,
      "Ġmap": 4646,
      "Ð½Ð¸ÐµÐ¼": 4647,
      "Ġspeech": 4648,
      "ĠÐĴÑĭ": 4649,
      "Ġ199": 4650,
      "Ġpurch": 4651,
      "Ġexecut": 4652,
      "ĠÑĢÑĥÑģ": 4653,
      "Ġcompanies": 4654,
      "?\"": 4655,
      "??": 4656,
      "book": 4657,
      "ched": 4658,
      "oint": 4659,
      "atory": 4660,
      "Ġcab": 4661,
      "Ġwalk": 4662,
      "rief": 4663,
      "Ġ->": 4664,
      "ÑīÐµÐ½Ð¸Ñı": 4665,
      "Ð¾Ð½Ðµ": 4666,
      "ĠIntern": 4667,
      "ĠÐŀÐ´Ð½Ð°ÐºÐ¾": 4668,
      "ĠComput": 4669,
      "war": 4670,
      "Ġtalking": 4671,
      "Ġtheore": 4672,
      "Ġwatch": 4673,
      "Ġfing": 4674,
      "ÑģÑĤÑĢÐ°": 4675,
      "ada": 4676,
      "ĠSystem": 4677,
      "ÑĨÑĭ": 4678,
      "ĠÐ¸Ð½ÑĤÐµÑĢ": 4679,
      "ĠÑħÐ°": 4680,
      "Ġincreasing": 4681,
      "Ġtrade": 4682,
      "Ġcommands": 4683,
      "ÑĤÐ¾Ð¼Ñĥ": 4684,
      "Ġfocused": 4685,
      "ĠÐ½Ð°Ð¿ÑĢÐ¸Ð¼ÐµÑĢ": 4686,
      "Ġestablished": 4687,
      "Ġseparate": 4688,
      "ĠConsider": 4689,
      "Ġinterpret": 4690,
      "ltimately": 4691,
      "sol": 4692,
      "Ġbrand": 4693,
      "ums": 4694,
      "Ð»Ð¸Ð½": 4695,
      "Ð½Ð¸ÐºÐ¾Ð²": 4696,
      "Ġsoon": 4697,
      "ache": 4698,
      "ÑĪÐ¸Ñħ": 4699,
      "Ġ40": 4700,
      "Ġreply": 4701,
      "ĠÐ¿Ð¾Ð»ÑĥÑĩÐ¸": 4702,
      "Ġslight": 4703,
      "Ġlogic": 4704,
      "Ġweights": 4705,
      "Ġsuccessful": 4706,
      "ÑįÑĤÐ¾Ð¼Ñĥ": 4707,
      "Ġdescription": 4708,
      "['": 4709,
      "bl": 4710,
      "dis": 4711,
      "Ġsil": 4712,
      "Ġcame": 4713,
      "nds": 4714,
      "Ġfront": 4715,
      "Ġbill": 4716,
      "icious": 4717,
      "Ġnucle": 4718,
      "ĠÐ¿Ð¸": 4719,
      "Ġstock": 4720,
      "Ġconsole": 4721,
      "Ð·Ñĥ": 4722,
      "ĠÐ¾ÑĢ": 4723,
      "Ð¿ÐµÑĢ": 4724,
      "ĠPre": 4725,
      "Ġimmedi": 4726,
      "resents": 4727,
      "ĠÐ±Ðµ": 4728,
      "ÑģÐºÐ¾Ð¹": 4729,
      "Ð»ÑĮÐ½Ð¾": 4730,
      "Ġgoes": 4731,
      "nown": 4732,
      "ĠÑįÐ»ÐµÐ¼": 4733,
      "ordin": 4734,
      "ĠVal": 4735,
      "ĊĠĠĠĠĠĠĠĠĠĠĠĠĠĠĠĠ": 4736,
      "Ġflight": 4737,
      "Ġfilm": 4738,
      "Ġfilled": 4739,
      "Ġmachines": 4740,
      "Ġcapital": 4741,
      "Ġlayers": 4742,
      "ĠÐ¾Ð±ÑĬÐµÐº": 4743,
      "ĠÐ»ÑİÐ´ÐµÐ¹": 4744,
      "Ġdangerous": 4745,
      "Ġarchitecture": 4746,
      "cer": 4747,
      "cies": 4748,
      "ĠSQL": 4749,
      "Ġmeant": 4750,
      "ĠMar": 4751,
      "ĠEU": 4752,
      "ocal": 4753,
      "ĠÐ½ÐµÐºÐ¾ÑĤÐ¾ÑĢÑĭ": 4754,
      "Ġtechnical": 4755,
      "plications": 4756,
      "Ġrecent": 4757,
      "Ġhands": 4758,
      "ĠÑģÐ¿Ðµ": 4759,
      "Ġcapabilities": 4760,
      "Ġanimal": 4761,
      "Ġexistence": 4762,
      "Ġdynamic": 4763,
      "ĠÐ¿Ð¾Ð·Ð²Ð¾Ð»": 4764,
      "Ġbowl": 4765,
      "Certain": 4766,
      "aks": 4767,
      "px": 4768,
      "ouch": 4769,
      "item": 4770,
      "Ġpin": 4771,
      "array": 4772,
      "Ð»ÑģÑı": 4773,
      "ĠÐ¿Ð¾ÑĢ": 4774,
      "Ġseg": 4775,
      "Ġclick": 4776,
      "berry": 4777,
      "Ġcollection": 4778,
      "ipment": 4779,
      "ÑĥÑİÑĤ": 4780,
      "rency": 4781,
      "Ġeconomy": 4782,
      "Ġmeasures": 4783,
      "Ġbattle": 4784,
      "Ġcontributions": 4785,
      "Ġlyrics": 4786,
      "more": 4787,
      "void": 4788,
      "Ġaw": 4789,
      "Ġfalse": 4790,
      "style": 4791,
      "ĠÐ¾Ð½Ð°": 4792,
      "rial": 4793,
      "Ġcho": 4794,
      "Ġmac": 4795,
      "Ġthemes": 4796,
      "Ġspir": 4797,
      "Ġdetail": 4798,
      "ternal": 4799,
      "Ġdefe": 4800,
      "Ġdefault": 4801,
      "Ġrepresents": 4802,
      "Ġerr": 4803,
      "ĠÑĢÐ°Ð±Ð¾ÑĤÐ°": 4804,
      "Ġspecifically": 4805,
      "Ġapproximately": 4806,
      "Tube": 4807,
      "care": 4808,
      "erv": 4809,
      "Ġcounter": 4810,
      "Ð°Ð´": 4811,
      "Ġtomat": 4812,
      "Ġrepe": 4813,
      "ament": 4814,
      "ÑĤÐ¾ÑĢ": 4815,
      "Ġadded": 4816,
      "ĠÑĢÐ°Ð·Ð²Ð¸": 4817,
      "Ġtransport": 4818,
      "plication": 4819,
      "Ġseek": 4820,
      "ername": 4821,
      "Ġsometimes": 4822,
      "ĠReact": 4823,
      "ĠAlso": 4824,
      "Ġchanging": 4825,
      "Ġtesting": 4826,
      "ĠÑĨÐµÐ»": 4827,
      "ĠÐ²Ð¾ÑģÐ¿": 4828,
      "Ġpolicies": 4829,
      "Certainly": 4830,
      "eet": 4831,
      "event": 4832,
      "ging": 4833,
      "mod": 4834,
      "rim": 4835,
      "iny": 4836,
      "input": 4837,
      "Ġcrypt": 4838,
      "Ġhab": 4839,
      "Ð»Ð¾ÑģÑĮ": 4840,
      "Ġanime": 4841,
      "ÑĢÐµÐ¼ÐµÐ½": 4842,
      "ĠÑĥÑģÑĤÑĢÐ¾Ð¹": 4843,
      "rupt": 4844,
      "ĠÐ·Ð°Ð¿": 4845,
      "Ġinstr": 4846,
      "Ġdeveloping": 4847,
      "Ġfinding": 4848,
      "Ġorganizations": 4849,
      "ĠÐ½ÐµÐ¾Ð±ÑħÐ¾Ð´Ð¸Ð¼Ð¾": 4850,
      "Ġappreci": 4851,
      "\");": 4852,
      "':": 4853,
      "sum": 4854,
      "Ġbur": 4855,
      "Ð½Ð¾Ð²Ð°": 4856,
      "Ġthinking": 4857,
      "Ġgod": 4858,
      "iding": 4859,
      "osis": 4860,
      "Ð»Ð¸Ð·": 4861,
      "ously": 4862,
      "ĠUbuntu": 4863,
      "ÑģÐ¸Ð¸": 4864,
      "Ġformula": 4865,
      "Ð¾Ð¿Ð¾Ð»": 4866,
      "ĠÑĤÐ°ÐºÐ¾Ðµ": 4867,
      "Ġ50": 4868,
      "ĠÐĿÐ¾": 4869,
      "Ġscenari": 4870,
      "âłĢ": 4871,
      "top": 4872,
      "Ġur": 4873,
      "ret": 4874,
      "eria": 4875,
      "Ġcamer": 4876,
      "Ġfresh": 4877,
      "ste": 4878,
      "ĠAN": 4879,
      "Ġvast": 4880,
      "Ð³Ð¾ÑĤÐ¾Ð²": 4881,
      "Ġking": 4882,
      "Ġscal": 4883,
      "Ġcloud": 4884,
      "apter": 4885,
      "ÑĨÐ¸Ð¹": 4886,
      "Ġexpand": 4887,
      "Ġincreased": 4888,
      "Ġinterests": 4889,
      "Ġvector": 4890,
      "Ġallowed": 4891,
      "ĠÑģÐ²Ð¾Ð¸": 4892,
      "Ġlegs": 4893,
      "Ġemotions": 4894,
      "ĠÐ¿Ð¾Ð¼Ð¾ÑīÑĮÑİ": 4895,
      "Ġmaximum": 4896,
      "IS": 4897,
      "ees": 4898,
      "fl": 4899,
      "ses": 4900,
      "Ġtrou": 4901,
      "Ð¾ÑıÑĤ": 4902,
      "Ġsides": 4903,
      "Ð¸Ð´": 4904,
      "ÑĢÐ¾Ð¿": 4905,
      "start": 4906,
      "oll": 4907,
      "ĠÐ¿ÑĢÐ°Ð²Ð¸": 4908,
      "ĠÐ¸ÑģÐº": 4909,
      "Ġrule": 4910,
      "ĠGener": 4911,
      "Ġunc": 4912,
      "Ġmodule": 4913,
      "âĢĵ": 4914,
      "ĠÐ»Ðµ": 4915,
      "Ð¾Ð·Ð½Ð°": 4916,
      "Ġphr": 4917,
      "Ġsmart": 4918,
      "Ġresulting": 4919,
      "Â».": 4920,
      "Ġestimate": 4921,
      "Ġcosts": 4922,
      "Ġsympt": 4923,
      "Ġmilitary": 4924,
      "Ġattacks": 4925,
      "Ġbrowser": 4926,
      "ĠÐ¼Ð½Ð¾Ð¶Ðµ": 4927,
      "Ġviol": 4928,
      "Un": 4929,
      "gal": 4930,
      "ativity": 4931,
      "Ġpsych": 4932,
      "ulating": 4933,
      "ĠSim": 4934,
      "Ġhero": 4935,
      "ĠEach": 4936,
      "order": 4937,
      "ĠÐ¾Ð±Ðµ": 4938,
      "Ġspell": 4939,
      "ĠÐ³Ð¾Ð´Ð°": 4940,
      "Ġkeys": 4941,
      "Ġesc": 4942,
      "Ġfrequen": 4943,
      "Ġpowers": 4944,
      "Ġcarbon": 4945,
      "ĠÐ¿ÑĢÐ¾Ð±Ð»ÐµÐ¼": 4946,
      "ÑĦÑĦÐµÐº": 4947,
      "']": 4948,
      "100": 4949,
      "](": 4950,
      "csv": 4951,
      "hent": 4952,
      "Ġsample": 4953,
      "atically": 4954,
      "erve": 4955,
      "Ġdrag": 4956,
      "Ġlate": 4957,
      "rack": 4958,
      "ceed": 4959,
      "odies": 4960,
      "ĠÑģÐ°": 4961,
      "ĠÐºÐ¾ÑĢ": 4962,
      "Ġ14": 4963,
      "ĠOver": 4964,
      "Ġbutter": 4965,
      "Ġmyself": 4966,
      "Ġroad": 4967,
      "rown": 4968,
      "ĠÐ¿ÑĢÐ¾ÑģÑĤÐ¾": 4969,
      "Ġmath": 4970,
      "Ġextract": 4971,
      "Ġsupports": 4972,
      "Ġconnected": 4973,
      "Ð¶Ð°ÑĤÑĮ": 4974,
      "Ð¾Ð²ÑĭÑħ": 4975,
      "Ġreceive": 4976,
      "Ġfloat": 4977,
      "Ġcollabor": 4978,
      "ĠÑģÐ²ÑıÐ·Ð°": 4979,
      "IGHT": 4980,
      "Of": 4981,
      "ref": 4982,
      "Ġcru": 4983,
      "Ð¸Ð½": 4984,
      "etic": 4985,
      "ĠÑģÑĩÐ¸ÑĤÐ°": 4986,
      "ĠPy": 4987,
      "Ġchicken": 4988,
      "ĠMat": 4989,
      "Ġsecre": 4990,
      "Ð¾Ð´ÐµÑĢ": 4991,
      "ounds": 4992,
      "ĊĠĠĠĠĠĠĠĠĠ": 4993,
      "Ġdefined": 4994,
      "Ġchess": 4995,
      "Ġbelieved": 4996,
      "Ġchallenge": 4997,
      "point": 4998,
      "ĠÐ¿Ð¾Ð½Ð¸Ð¼Ð°": 4999,
      "ĠÐ¿ÑĢÐ¾Ð¸Ð·Ð²Ð¾Ð´": 5000,
      "Ġincorpor": 5001,
      "ĠÐ°Ð»Ð³Ð¾ÑĢÐ¸ÑĤ": 5002,
      "65": 5003,
      "De": 5004,
      "ĠÑĪÐ°": 5005,
      "Ġbul": 5006,
      "Ġluck": 5007,
      "ÑĭÐ¹": 5008,
      "ÑıÑĤÐ¸": 5009,
      "ession": 5010,
      "Ġsugar": 5011,
      "ĠÐ¼Ð½Ð¾Ð³Ð¾": 5012,
      "Ð½Ð¸Ð·": 5013,
      "ĠÐ·Ð²Ñĥ": 5014,
      "ĠÐ°Ðº": 5015,
      "ĠÐ³Ð»Ð°": 5016,
      "Ġvalu": 5017,
      "Ð»ÐµÐº": 5018,
      "Ġregulations": 5019,
      "ÑĩÐµÑģÐºÐ¸Ñħ": 5020,
      "ĠÑĤÐ¾Ñĩ": 5021,
      "Ġvision": 5022,
      "Ġcapacity": 5023,
      "Ġorganization": 5024,
      "Ġcontribute": 5025,
      "Ġframe": 5026,
      "ĠÐ²Ð¾Ð¿ÑĢÐ¾ÑģÑĭ": 5027,
      "ĠÑįÑĤÐ¾Ð¹": 5028,
      "Ġconsistent": 5029,
      "ĠÑģÐ´ÐµÐ»Ð°ÑĤÑĮ": 5030,
      "Ġmentioned": 5031,
      "Ġatmosphere": 5032,
      "Ġapologize": 5033,
      "AS": 5034,
      "off": 5035,
      "pair": 5036,
      "ta": 5037,
      "Ġiron": 5038,
      "Ġfat": 5039,
      "Ġbank": 5040,
      "Ġhun": 5041,
      "rade": 5042,
      "Ġpros": 5043,
      "iring": 5044,
      "ĠÐºÐ¾Ð»Ð¸": 5045,
      "Ġshall": 5046,
      "Ġresol": 5047,
      "**:": 5048,
      "Ġinsurance": 5049,
      "Ġrights": 5050,
      "Ġparagraph": 5051,
      "Ġmuscle": 5052,
      "Ġenvironmental": 5053,
      "ĠTherefore": 5054,
      "Ġsituations": 5055,
      "Ġrisks": 5056,
      "Ġcaused": 5057,
      "Ġoppos": 5058,
      "Ġcompletely": 5059,
      "Ġsymptoms": 5060,
      "DE": 5061,
      "Int": 5062,
      "eor": 5063,
      "ugh": 5064,
      "Ġcit": 5065,
      "Ġcos": 5066,
      "Ġcamp": 5067,
      "Ð½ÐµÑĢ": 5068,
      "Ġrein": 5069,
      "ĠIN": 5070,
      "Ġstable": 5071,
      "ĠÐ²Ð·": 5072,
      "irm": 5073,
      "ĠSm": 5074,
      "Ġvac": 5075,
      "ĠReg": 5076,
      "irect": 5077,
      "ĠÑĥÑĢÐ¾Ð²": 5078,
      "ĠÐ±ÑĭÐ»Ð°": 5079,
      "ĠOpenAI": 5080,
      "Ġpurposes": 5081,
      "ĠÐ´Ð¾ÑģÑĤÑĥÐ¿": 5082,
      "Ġelectron": 5083,
      "Ġresearc": 5084,
      "Ð½Ð¾Ð¼Ñĥ": 5085,
      "Ġhypot": 5086,
      "Ġeffectively": 5087,
      "Ġeye": 5088,
      "Ġestablish": 5089,
      "Ġprimary": 5090,
      "Ġlatest": 5091,
      "ÐŃÑĤÐ¾": 5092,
      "AL": 5093,
      "Remember": 5094,
      "cor": 5095,
      "main": 5096,
      "rant": 5097,
      "Ġtour": 5098,
      "Ġsou": 5099,
      "Ġple": 5100,
      "Ġpush": 5101,
      "Ġmicro": 5102,
      "Ġmiddle": 5103,
      "omy": 5104,
      "ÑıÐ¼Ð¸": 5105,
      "chain": 5106,
      "Ġconduct": 5107,
      "adem": 5108,
      "ÐµÐ½ÑĤÐ°": 5109,
      "ĠÐºÐ¾Ð´": 5110,
      "Ġrich": 5111,
      "Ð½Ð¸ÑĤÐµ": 5112,
      "ĠDis": 5113,
      "ocr": 5114,
      "ĠÑĩÐµÑĢÐµ": 5115,
      "Ġunit": 5116,
      "---": 5117,
      "ÑģÐºÐ¾Ð¼": 5118,
      "Ð»Ð°ÑģÑĮ": 5119,
      "ÑģÑĤÐ²Ðµ": 5120,
      "Ġlargest": 5121,
      "ÐĴÑĭ": 5122,
      "Ġequipment": 5123,
      "Ġcontainer": 5124,
      "Ġamounts": 5125,
      "AION": 5126,
      "Ġlimitations": 5127,
      "Ġperspective": 5128,
      "Ġstyles": 5129,
      "PL": 5130,
      "cos": 5131,
      "oin": 5132,
      "ene": 5133,
      "Ġmal": 5134,
      "user": 5135,
      "ÐºÑĢÑĭ": 5136,
      "Ġbegan": 5137,
      "ĠÐ²ÐºÑĥ": 5138,
      "uries": 5139,
      "ĠÑģÐ¼ÑĭÑģ": 5140,
      "ĠSte": 5141,
      "Ġvia": 5142,
      "Ġneur": 5143,
      "ĠDon": 5144,
      "Ð»ÑĮÑĤÐ°": 5145,
      "ĠÐ³Ð¾ÑĢ": 5146,
      "ĠÐ¿Ð¾Ñĩ": 5147,
      "ĠYouTube": 5148,
      "Ġplayed": 5149,
      "Ġcommunities": 5150,
      "Ð²ÐµÑģÑĤ": 5151,
      "Ġready": 5152,
      "Ġcentral": 5153,
      "ĠÐºÐ¾Ð¼Ð°Ð½": 5154,
      "Ġlayout": 5155,
      "ĠÐ²ÑģÐµÐ³Ð¾": 5156,
      "Ġcausing": 5157,
      "ĠÐ²ÑĢÐµÐ¼ÐµÐ½Ð¸": 5158,
      "Ġregularly": 5159,
      "ĠÐ¿Ð¾ÑģÐ»ÐµÐ´": 5160,
      "ĠÐ¼Ð½Ð¾Ð³": 5161,
      "ĠApple": 5162,
      "ĠBritish": 5163,
      "Ġdisease": 5164,
      "Ġopin": 5165,
      "ĠÐ»ÑĥÑĩÑĪÐµ": 5166,
      "\"?": 5167,
      "={": 5168,
      "RO": 5169,
      "base": 5170,
      "da": 5171,
      "zing": 5172,
      "ÐµÑĢÐ¸": 5173,
      "ana": 5174,
      "Ġpand": 5175,
      "Ġmother": 5176,
      "Ġlost": 5177,
      "change": 5178,
      "ĠMinecraft": 5179,
      "indow": 5180,
      "Ġcompat": 5181,
      "Ġclar": 5182,
      "igned": 5183,
      "ifications": 5184,
      "ĠÐ²ÑĭÐ¿Ð¾Ð»": 5185,
      "Ġdeveloper": 5186,
      "Ġtransfer": 5187,
      "Ġsaw": 5188,
      "hens": 5189,
      "Ġkeyword": 5190,
      "Ġbelow": 5191,
      "ĠÑģÐ¾Ð¾Ð±": 5192,
      "Ġengage": 5193,
      "token": 5194,
      "Ġswitches": 5195,
      "ocket": 5196,
      "position": 5197,
      "ĠUSB": 5198,
      "Ġbottom": 5199,
      "Ġphilosophy": 5200,
      "Ġq": 5201,
      "Ġsav": 5202,
      "Ġdry": 5203,
      "icated": 5204,
      "Ġhidden": 5205,
      "using": 5206,
      "Ġrelease": 5207,
      "vere": 5208,
      "ĠMon": 5209,
      "Ġkid": 5210,
      "Ġresource": 5211,
      "Ġhash": 5212,
      "Ġsport": 5213,
      "Ġcold": 5214,
      "ĠÐ¿ÑĢÐ¸Ð»Ð¾Ð¶": 5215,
      "ishing": 5216,
      "Ġfunctionality": 5217,
      "Ġsmell": 5218,
      "Ġoffice": 5219,
      "ĠÐ¸Ð½ÑģÑĤÑĢÑĥ": 5220,
      "ÑĨÐµÐ¿": 5221,
      "Ġstatement": 5222,
      "Ġrestrict": 5223,
      "Ġbiases": 5224,
      "Ġintegr": 5225,
      "ĠÐ±Ð¾Ð»ÑĮÑĪ": 5226,
      "Ġcauses": 5227,
      "Ġreceived": 5228,
      "ĠMaybe": 5229,
      "Where": 5230,
      "flow": 5231,
      "gy": 5232,
      "ls": 5233,
      "pid": 5234,
      "rices": 5235,
      "rror": 5236,
      "Ġlooks": 5237,
      "ÑĭÐ¼": 5238,
      "iful": 5239,
      "this": 5240,
      "Ð³Ð´Ð°": 5241,
      "Ð½Ð¸ÑĤÑĮ": 5242,
      "Ġenh": 5243,
      "ĠÑĤÑĢÐµÐ±": 5244,
      "inder": 5245,
      "ĠÑĥÐ¶Ðµ": 5246,
      "ĠÑįÐ»ÐµÐºÑĤ": 5247,
      "Ġsettings": 5248,
      "Ġphone": 5249,
      "Ġrelatively": 5250,
      "Ġ.-": 5251,
      "Ġgradu": 5252,
      "Ġvisit": 5253,
      "Ġedge": 5254,
      "ĠÑıÐ·ÑĭÐº": 5255,
      "Ġremains": 5256,
      "Ð¿Ð¸ÑĪÐ¸": 5257,
      "Ġbrown": 5258,
      "ĠÐ¿Ð¾Ð»ÑĮÐ·Ð¾Ð²Ð°": 5259,
      "Ġcabin": 5260,
      "First": 5261,
      "ha": 5262,
      "la": 5263,
      "work": 5264,
      "Ġtag": 5265,
      "Ð°Ð²": 5266,
      "itter": 5267,
      "Ġlabor": 5268,
      "Ġstories": 5269,
      "ĠÐ½Ð¸Ñħ": 5270,
      "Ġdev": 5271,
      "thog": 5272,
      "Ð³Ð¾Ð´": 5273,
      "ĠGPU": 5274,
      "Ġovercome": 5275,
      "Ġmatrices": 5276,
      "ĠÐ¿Ð¾Ð´Ð´ÐµÑĢ": 5277,
      "Ð²ÐµÑģÑĤÐ¸": 5278,
      "Ġmembers": 5279,
      "ĠÐŀÐ½": 5280,
      "Ġasked": 5281,
      "Ġbehavi": 5282,
      "Ġreleased": 5283,
      "Another": 5284,
      "Ġmoon": 5285,
      "Ġpieces": 5286,
      "Ġexercises": 5287,
      "Ġcapture": 5288,
      "Ġpolicy": 5289,
      "ĠFrance": 5290,
      "thogonal": 5291,
      "Hey": 5292,
      "cel": 5293,
      "known": 5294,
      "no": 5295,
      "ĠÐķ": 5296,
      "Ġmountain": 5297,
      "Ġreward": 5298,
      "etch": 5299,
      "eline": 5300,
      "Ð´Ð¾Ð²": 5301,
      "ĠÐ¾ÑģÑĤÐ°": 5302,
      "emale": 5303,
      "plate": 5304,
      "ĠPract": 5305,
      "izer": 5306,
      "ĠÑĥÑģÑĤÐ°Ð½Ð¾Ð²": 5307,
      "acing": 5308,
      "ĠJS": 5309,
      "ĠÐ¸Ð·Ð¾Ð±": 5310,
      "Which": 5311,
      "ublic": 5312,
      "ÐĿÐµ": 5313,
      "Ġmessages": 5314,
      "ÑĢÐ¾Ð¼Ðµ": 5315,
      "Ġblocks": 5316,
      "ĠÐ½Ð¸Ðº": 5317,
      "Ð¢Ð°Ðº": 5318,
      "Ġaspects": 5319,
      "Give": 5320,
      "SC": 5321,
      "overy": 5322,
      "Ġtru": 5323,
      "ened": 5324,
      "omic": 5325,
      "ÑĭÑĤÐ°": 5326,
      "ots": 5327,
      "utorial": 5328,
      "ĠÐ¿Ð¾Ð¶Ð°Ð»ÑĥÐ¹ÑģÑĤÐ°": 5329,
      "amm": 5330,
      "umin": 5331,
      "ĠCent": 5332,
      "ĠCPU": 5333,
      "abet": 5334,
      "ĠMe": 5335,
      "ĠMach": 5336,
      "pped": 5337,
      "ĠÑĩÑĥÐ²": 5338,
      "Ġclim": 5339,
      "Ġevil": 5340,
      "Ð¾ÑĤÐ²ÐµÑĤ": 5341,
      "ĠÐ»ÐµÑĤ": 5342,
      "ĠÐ³Ð´Ðµ": 5343,
      "Ġstudent": 5344,
      "Ġanswers": 5345,
      "Ġdiag": 5346,
      "Ġgrowing": 5347,
      "Ġunivers": 5348,
      "Ġprobability": 5349,
      "Ġfigure": 5350,
      "ĠÐ¾Ð±ÑĥÑĩÐµÐ½Ð¸Ñı": 5351,
      "ĠÐ´ÐµÐ¹ÑģÑĤÐ²Ð¸": 5352,
      "Ġchemical": 5353,
      "Ġfavorite": 5354,
      ")^": 5355,
      "function": 5356,
      "haps": 5357,
      "Ð¸Ð¿": 5358,
      "estern": 5359,
      "Ġbrief": 5360,
      "Ġreps": 5361,
      "ĠÐ¸Ð´Ðµ": 5362,
      "Ġtend": 5363,
      "Ġspecify": 5364,
      "ÑģÑĤÐ°ÑĤÐ¾": 5365,
      "Ġ||": 5366,
      "Ġsignal": 5367,
      "Ġclasses": 5368,
      "ĠChrist": 5369,
      "Ġpromote": 5370,
      "ĠÐ»ÑİÐ´Ð¸": 5371,
      "Ġwebsites": 5372,
      "Ġcustomers": 5373,
      "Ġdidn": 5374,
      "Ġportal": 5375,
      "Ġfrequ": 5376,
      "Ġdogs": 5377,
      "ĠGerman": 5378,
      "ĠÑĩÐµÐ»Ð¾Ð²ÐµÐºÐ°": 5379,
      "forcement": 5380,
      "Ġgravity": 5381,
      "Ġvegetables": 5382,
      "ĠÑĤÐµÐºÑģÑĤ": 5383,
      "Ġslightly": 5384,
      "Ok": 5385,
      "Since": 5386,
      "UT": 5387,
      "Ã¼": 5388,
      "Ġson": 5389,
      "Ġwild": 5390,
      "ingu": 5391,
      "Ġtoken": 5392,
      "ley": 5393,
      "ascript": 5394,
      "illed": 5395,
      "Ġgas": 5396,
      "uman": 5397,
      "Ġcoming": 5398,
      "Ð¹ÑĤÐ¸": 5399,
      "Ġplaces": 5400,
      "ellow": 5401,
      "ocity": 5402,
      "ĠNorth": 5403,
      "Ð²Ð°Ñı": 5404,
      "avascript": 5405,
      "Ġoutline": 5406,
      "ÑĢÑĥÐ¿": 5407,
      "connect": 5408,
      "othing": 5409,
      "Ġ.-.": 5410,
      "ructure": 5411,
      "ĠÑįÑĤÐ¾ÑĤ": 5412,
      "ĠÐŁÐ¾": 5413,
      "Ġmember": 5414,
      "Ð¸ÑģÐ°": 5415,
      "ĠÐ´ÑĢÑĥÐ³Ð¸Ðµ": 5416,
      "Ġbright": 5417,
      "Ġprivate": 5418,
      "Ġprobably": 5419,
      "augh": 5420,
      "Ġexactly": 5421,
      "Ġerrors": 5422,
      "ĠÑĩÐµÑĢÐµÐ·": 5423,
      "';": 5424,
      "70": 5425,
      "Hi": 5426,
      "Once": 5427,
      "pes": 5428,
      "Ġir": 5429,
      "asp": 5430,
      "Ġgives": 5431,
      "Ð¼ÐµÐ½Ð¸": 5432,
      "Ġconvert": 5433,
      "ĠÑģÐµÑĢ": 5434,
      "ades": 5435,
      "ÑĢÐ°ÑĤ": 5436,
      "ĠCS": 5437,
      "istance": 5438,
      "Ð±Ñĥ": 5439,
      "ÑĤÐµÑĢÐ°": 5440,
      "ĠMany": 5441,
      "ĠDAN": 5442,
      "ĠÐ½Ð°Ñģ": 5443,
      "Ð¾Ð½Ð¸": 5444,
      "Ġobst": 5445,
      "ĠVis": 5446,
      "Ġofficial": 5447,
      "example": 5448,
      "Ġfilter": 5449,
      "Ġ60": 5450,
      "Ġcommunicate": 5451,
      "Ġfeelings": 5452,
      "Ġdiscover": 5453,
      "Ġauthent": 5454,
      "ÑĢÐ¾Ð²Ð°Ð½Ð¸Ñı": 5455,
      "ync": 5456,
      "Ġdetermined": 5457,
      "Ġeventually": 5458,
      "Ġinvestment": 5459,
      "Ġopportunity": 5460,
      "Ġfishing": 5461,
      "Pl": 5462,
      "hood": 5463,
      "ugg": 5464,
      "Ðķ": 5465,
      "Ġri": 5466,
      "Ġbird": 5467,
      "Ġborn": 5468,
      "root": 5469,
      "ulated": 5470,
      "Ġalt": 5471,
      "aby": 5472,
      "Ð»Ð¸ÑģÑĮ": 5473,
      "Ġshown": 5474,
      "clus": 5475,
      "class": 5476,
      "Ġcompar": 5477,
      "ensor": 5478,
      "Ġstarts": 5479,
      "Ð´Ð¸ÑĤÐµ": 5480,
      "Ġsauce": 5481,
      "Ġengaging": 5482,
      "Ġswitch": 5483,
      "scale": 5484,
      "Ġprotection": 5485,
      "Ġinteger": 5486,
      "Ġcontinues": 5487,
      "Ġupdated": 5488,
      "ĠEmpire": 5489,
      "Ġroutine": 5490,
      "mission": 5491,
      "ĠUniversity": 5492,
      "rm": 5493,
      "sk": 5494,
      "Ġast": 5495,
      "hest": 5496,
      "Ġfarm": 5497,
      "Ġdivid": 5498,
      "Ġisn": 5499,
      "ille": 5500,
      "ĠÑģÐ»Ð¾Ð²": 5501,
      "Ġdeg": 5502,
      "Ð¿ÑĢÐ¸": 5503,
      "osit": 5504,
      "Ġshared": 5505,
      "resident": 5506,
      "ĠWrite": 5507,
      "Ð»ÑıÑĢ": 5508,
      "Ġaccom": 5509,
      "Ġcolle": 5510,
      "ÑģÐ¸Ð±Ð¾": 5511,
      "ĠÐ±ÑĭÐ»Ð¸": 5512,
      "ĠÑĦÐ°Ð¹": 5513,
      "ĠÑģÑĤÐ¾ÑĢ": 5514,
      "ĠÐ·Ð½Ð°ÑĩÐ¸": 5515,
      "Ġinteractions": 5516,
      "Ġglass": 5517,
      "Ġforest": 5518,
      "Ð²Ð¾Ð»Ñİ": 5519,
      "ĠDiscord": 5520,
      "Ġvaluable": 5521,
      "Dear": 5522,
      "bi": 5523,
      "box": 5524,
      "cm": 5525,
      "hold": 5526,
      "life": 5527,
      "train": 5528,
      "Ġpad": 5529,
      "Ġhit": 5530,
      "Ġhom": 5531,
      "ÑĥÐ¹ÑĤÐµ": 5532,
      "ĠSS": 5533,
      "ĠPol": 5534,
      "ĠGPT": 5535,
      "Ġunable": 5536,
      "Ġqual": 5537,
      "ĠUp": 5538,
      "ressive": 5539,
      "conds": 5540,
      "ĠÐ³Ð¾Ð»": 5541,
      "Inst": 5542,
      "Ð·Ð°Ð¹": 5543,
      "ÑĩÐµÑģÐºÐ¾Ð¹": 5544,
      "Ġretrie": 5545,
      "Ġ+=": 5546,
      "Ġaccessible": 5547,
      "Ġparticles": 5548,
      "Ġessay": 5549,
      "Ġemotional": 5550,
      "espite": 5551,
      "Ġchords": 5552,
      "ĠÑĤÐµÑħÐ½": 5553,
      "Ġbattery": 5554,
      "Ġutil": 5555,
      "Ġangle": 5556,
      "Ġprotein": 5557,
      "ĠDefine": 5558,
      "Error": 5559,
      "Sub": 5560,
      "oke": 5561,
      "pm": 5562,
      "Ġice": 5563,
      "Ġcats": 5564,
      "oration": 5565,
      "Ġpet": 5566,
      "uster": 5567,
      "Ġord": 5568,
      "ĠPar": 5569,
      "Ġleave": 5570,
      "udio": 5571,
      "Ð¾Ð´Ð¾Ð»": 5572,
      "ĠOF": 5573,
      "Ġqueries": 5574,
      "velocity": 5575,
      "Ġfeet": 5576,
      "Ġmanner": 5577,
      "Ġrelax": 5578,
      "Ġrain": 5579,
      "Ġclassical": 5580,
      "Ġlights": 5581,
      "ĠÐºÐ°ÑĩÐµ": 5582,
      "Ð¸ÑĤÑĥ": 5583,
      "Ġlearned": 5584,
      "Ġbreed": 5585,
      "Ġwidth": 5586,
      "Ġlandsc": 5587,
      "Ġefficiently": 5588,
      "ĠÐĿÐ°Ð¿ÑĢÐ¸Ð¼ÐµÑĢ": 5589,
      "Ġinternational": 5590,
      "Ġphilosophical": 5591,
      "Ġheavy": 5592,
      "Ġcamera": 5593,
      "ĠÐ¾Ð±ÐµÑģÐ¿Ðµ": 5594,
      "\";": 5595,
      "AB": 5596,
      "ĠÐ¥": 5597,
      "real": 5598,
      "Ġcake": 5599,
      "Ġcraft": 5600,
      "edd": 5601,
      "Ġrepl": 5602,
      "Ġgalax": 5603,
      "Ġprop": 5604,
      "ĠÐ½Ð¾Ð²": 5605,
      "Ġheard": 5606,
      "ÑĤÐµÐ»Ñı": 5607,
      "ĠBuild": 5608,
      "ĠÑĩÐµ": 5609,
      "Ġcompare": 5610,
      "ÑĢÐ¾ÑģÐ¸": 5611,
      "ĠÐ°ÑĢ": 5612,
      "ĠÐ³Ð¾Ð²Ð¾ÑĢÐ¸": 5613,
      "Ð²Ð¸ÑĤÑĮ": 5614,
      "ĠÑĤÐµÑĢ": 5615,
      "Ġpoor": 5616,
      "Ġopening": 5617,
      "obile": 5618,
      "ĠChoose": 5619,
      "Ġguess": 5620,
      "Ġinputs": 5621,
      "Ġmagical": 5622,
      "Ġmoves": 5623,
      "ĠÐ¾ÑģÐ¾Ð±": 5624,
      "ĠÐĶÐ»Ñı": 5625,
      "ĠÐłÐ¾Ñģ": 5626,
      "Ġtriangle": 5627,
      "Ġsummar": 5628,
      "Ġwonder": 5629,
      "Ġanalyze": 5630,
      "password": 5631,
      "Ġcomfortable": 5632,
      "friendly": 5633,
      "ĠÑģÐ»Ð¾Ð²Ð°": 5634,
      "Ġdouble": 5635,
      "');": 5636,
      ";;": 5637,
      "Data": 5638,
      "Sh": 5639,
      "mut": 5640,
      "ĠÑĨÐµ": 5641,
      "Ġbinary": 5642,
      "Ġtown": 5643,
      "ros": 5644,
      "ĠÐ¸Ñģ": 5645,
      "section": 5646,
      "antasy": 5647,
      "ÑĢÐ¸Ð°Ð½": 5648,
      "Ð½Ð¸Ðº": 5649,
      "Ð¶Ð´": 5650,
      "ogram": 5651,
      "ÑĨÐ¸Ð°Ð»Ð¸": 5652,
      "Ġserious": 5653,
      "Ġinstalled": 5654,
      "efore": 5655,
      "ttp": 5656,
      "Ġartists": 5657,
      "ÑīÐµÐµ": 5658,
      "ĠÑħÐ¾Ñĩ": 5659,
      "Ġhealthcare": 5660,
      "Ġmetal": 5661,
      "PIO": 5662,
      "Ġbias": 5663,
      "ĠÑıÐ·ÑĭÐºÐµ": 5664,
      "Ġsongs": 5665,
      "Ġsubjective": 5666,
      "ÑĨÐ¸Ð¾Ð½Ð°Ð»ÑĮ": 5667,
      "Ġobserv": 5668,
      "Ġsatis": 5669,
      "Ġschedu": 5670,
      "allel": 5671,
      "PE": 5672,
      "iant": 5673,
      "lin": 5674,
      "Ġagg": 5675,
      "onic": 5676,
      "onent": 5677,
      "Ġcm": 5678,
      "Ġpip": 5679,
      "Ġoven": 5680,
      "Ġble": 5681,
      "Ġdu": 5682,
      "char": 5683,
      "Ð²Ð»Ðµ": 5684,
      "ĠÑģÐ¾Ð´ÐµÑĢ": 5685,
      "ests": 5686,
      "Ġsubs": 5687,
      "ĠPort": 5688,
      "osen": 5689,
      "pping": 5690,
      "ĠÐ½Ð°Ð´": 5691,
      "ĠFirst": 5692,
      "Ġknew": 5693,
      "client": 5694,
      "Ġunits": 5695,
      "xture": 5696,
      "ĠÑįÑĦÑĦÐµÐº": 5697,
      "Ġcommer": 5698,
      "Ġtrig": 5699,
      "Ġpepper": 5700,
      "Ġworked": 5701,
      "Ð·Ð°ÑĨÐ¸Ð¸": 5702,
      "Ġadvance": 5703,
      "ĠÑĢÐµÐ·Ñĥ": 5704,
      "Ġclassic": 5705,
      "Ġdiverse": 5706,
      "Ġhappiness": 5707,
      "State": 5708,
      "Ð¾ÑĩÐµÐ¼Ñĥ": 5709,
      "Ġpractical": 5710,
      "Ġpublished": 5711,
      "aborate": 5712,
      "Ġscene": 5713,
      "Ġstatus": 5714,
      "Ġderiv": 5715,
      "Ġchannel": 5716,
      "ĠÑģÐ»ÐµÐ´ÑĥÑİÑī": 5717,
      "ĠÑĢÐµÐ·ÑĥÐ»ÑĮÑĤÐ°": 5718,
      "lab": 5719,
      "Ġtone": 5720,
      "Ġsite": 5721,
      "Ġcin": 5722,
      "Ð°Ð¼Ð¸": 5723,
      "Ð²Ð¾ÑĢ": 5724,
      "unately": 5725,
      "ĠÑģÐ»Ðµ": 5726,
      "ĠCO": 5727,
      "ÑħÐ¸": 5728,
      "Ġdoctor": 5729,
      "Ġ24": 5730,
      "ĠNP": 5731,
      "Ð¾Ð½Ñĭ": 5732,
      "ĠÐ³Ð¾Ð´Ñĥ": 5733,
      "Ġexploring": 5734,
      "current": 5735,
      "ĠÐºÐ°ÐºÐ¾Ð¹": 5736,
      "Ġassume": 5737,
      "Ġtechnique": 5738,
      "Ġruns": 5739,
      "ĠÑģÐ²Ð¾Ð¹": 5740,
      "Ġimproving": 5741,
      "Ġreading": 5742,
      "Ġconstruct": 5743,
      "Ġparticip": 5744,
      "Ð¾Ð²ÑĭÐµ": 5745,
      "Ġupdates": 5746,
      "Ġtrees": 5747,
      "Ġminimum": 5748,
      "ĠÐ¾Ð±ÑĢÐ°Ð·Ð¾Ð¼": 5749,
      "efficient": 5750,
      "89": 5751,
      "bell": 5752,
      "year": 5753,
      "ĠÑĨÐ¸": 5754,
      "Ġsam": 5755,
      "Ġwent": 5756,
      "Ġdial": 5757,
      "image": 5758,
      "Ġstability": 5759,
      "ĠÐ²Ð¾Ð¹": 5760,
      "ĠApp": 5761,
      "Ġexternal": 5762,
      "ÑĢÐ°ÑĦÐ¸": 5763,
      "Ð¾Ð²ÑĮ": 5764,
      "ills": 5765,
      "Ġchain": 5766,
      "ĠHigh": 5767,
      "ĠFl": 5768,
      "ĠRun": 5769,
      "ards": 5770,
      "Ġcompre": 5771,
      "ĠOut": 5772,
      "Ġarr": 5773,
      "Ġunderlying": 5774,
      "ĠÐ¿Ð¾Ð¸": 5775,
      "Ġfunctional": 5776,
      "().": 5777,
      "Ġsolving": 5778,
      "ibly": 5779,
      "Ġtransition": 5780,
      "Ġreposit": 5781,
      "Ġfacts": 5782,
      "Ġcorresp": 5783,
      "Ġdiscovered": 5784,
      "Ġlimits": 5785,
      "Ġfamiliar": 5786,
      "Ġrecommendations": 5787,
      "Ġcorrectly": 5788,
      "Ġstored": 5789,
      "ĠÐ´Ð¸Ð·Ð°Ð¹": 5790,
      "Ġbroad": 5791,
      "Ġassistance": 5792,
      "encies": 5793,
      "elebr": 5794,
      "ocolate": 5795,
      "Orthogonal": 5796,
      "Ġmixture": 5797,
      "Ġspirit": 5798,
      "ĠJSON": 5799,
      "((": 5800,
      "Res": 5801,
      "bra": 5802,
      "lines": 5803,
      "sub": 5804,
      "ufact": 5805,
      "},": 5806,
      "Ġtouch": 5807,
      "Ġcooking": 5808,
      "icles": 5809,
      "ĠÐ¿ÑĢÐ°Ðº": 5810,
      "ÑĩÐ½Ð¾Ð¹": 5811,
      "ĠÐ²Ð¼Ðµ": 5812,
      "ĠAut": 5813,
      "sem": 5814,
      "ĠÐºÐ½Ð¸": 5815,
      "click": 5816,
      "ĊĠĠĠĠĠĠ": 5817,
      "Ġpeace": 5818,
      "rought": 5819,
      "hesis": 5820,
      "Ġplanning": 5821,
      "ĠÑģÐ¾Ð¾ÑĤÐ²ÐµÑĤ": 5822,
      "ĠÐ¼Ð°Ñģ": 5823,
      "ĠÐŀÐ½Ð¸": 5824,
      "Ġpassed": 5825,
      "Ġjoin": 5826,
      "Ġbeginning": 5827,
      "ÐĶÐ°": 5828,
      "Ġmoral": 5829,
      "Ġcopyright": 5830,
      "Ġpriorit": 5831,
      "Ġsyntax": 5832,
      "01": 5833,
      "03": 5834,
      "AC": 5835,
      "bing": 5836,
      "hand": 5837,
      "Ġvert": 5838,
      "ancy": 5839,
      "Ġpuzz": 5840,
      "Ġdie": 5841,
      "Ġdensity": 5842,
      "ications": 5843,
      "Ġnice": 5844,
      "ÐºÑĢÐµÑĤ": 5845,
      "imal": 5846,
      "ĠTe": 5847,
      "ĠTime": 5848,
      "iration": 5849,
      "Ġalmost": 5850,
      "aint": 5851,
      "Ġrough": 5852,
      "Ð½Ð¸Ð¼": 5853,
      "Ð½Ð¸ÐºÐ¸": 5854,
      "Ġdoor": 5855,
      "ĠDet": 5856,
      "ĠFe": 5857,
      "ĠOther": 5858,
      "Ð´Ð°ÑĢ": 5859,
      "ÐºÐ°Ñħ": 5860,
      "Ġapplied": 5861,
      "ĠÐºÐ°ÐºÐ¸Ðµ": 5862,
      "Ġmatrix": 5863,
      "Ġsolid": 5864,
      "Ġdistinct": 5865,
      "Â»,": 5866,
      "\":\"": 5867,
      "Ġthoughts": 5868,
      "Ġarguments": 5869,
      "Ġbusinesses": 5870,
      "Ġcontinued": 5871,
      "Ġcircum": 5872,
      "Ġconfiguration": 5873,
      "Ġsustainable": 5874,
      "Ġneurons": 5875,
      "Ġtruly": 5876,
      "From": 5877,
      "Time": 5878,
      "aper": 5879,
      "Ġ!": 5880,
      "Ġtutorial": 5881,
      "anish": 5882,
      "Ġpaddle": 5883,
      "icy": 5884,
      "rog": 5885,
      "Ġye": 5886,
      "Ġgiving": 5887,
      "cean": 5888,
      "Ġproof": 5889,
      "ĠSun": 5890,
      "ÑĤÐµÐ¼": 5891,
      "Ġchance": 5892,
      "Ġnotation": 5893,
      "Ġenable": 5894,
      "Ġwilling": 5895,
      "ĠÐ¾ÑĤÐºÑĢÑĭ": 5896,
      "Ġgrad": 5897,
      "Ġideal": 5898,
      "Ġengines": 5899,
      "Ġlaunch": 5900,
      "ÑĪÐµÐ³Ð¾": 5901,
      "Ġparallel": 5902,
      "process": 5903,
      "Ġoutputs": 5904,
      "Ġsaying": 5905,
      "Ġrestaur": 5906,
      "roduction": 5907,
      "ĠScience": 5908,
      "ÐĶÐ»Ñı": 5909,
      "ĠÐ´Ð°Ð¶Ðµ": 5910,
      "Ġprompts": 5911,
      "Ġmeeting": 5912,
      "Ġautomatically": 5913,
      "Ġnavigate": 5914,
      "Ġcrucial": 5915,
      "Tell": 5916,
      "json": 5917,
      "nal": 5918,
      "pat": 5919,
      "Ġ;": 5920,
      "Ġrom": 5921,
      "ĠÑĪÐ¸": 5922,
      "Ġsus": 5923,
      "Ġforces": 5924,
      "amental": 5925,
      "Ġalien": 5926,
      "ÐµÐ½Ñĭ": 5927,
      "ĠPower": 5928,
      "ĠÐ´Ð²Ð¸": 5929,
      "Ġmeal": 5930,
      "Ġrh": 5931,
      "Ġsea": 5932,
      "ĠFrom": 5933,
      "ĠÐ±Ð°": 5934,
      "append": 5935,
      "ĠÐ¾Ð±Ñĭ": 5936,
      "pected": 5937,
      "Ġapproaches": 5938,
      "Ġextension": 5939,
      "Ġediting": 5940,
      "ossible": 5941,
      "adding": 5942,
      "ÑĤÑĥÑĢÑĭ": 5943,
      "ĠÑģÐµÐ±Ðµ": 5944,
      "Ġorigin": 5945,
      "fortunately": 5946,
      "Ġvolume": 5947,
      "Ġintroduced": 5948,
      "ĠÐ¸Ð·Ð¾Ð±ÑĢÐ°Ð¶": 5949,
      "Ele": 5950,
      "Socket": 5951,
      "ira": 5952,
      "itution": 5953,
      "alt": 5954,
      "etime": 5955,
      "eli": 5956,
      "Ġstick": 5957,
      "ithub": 5958,
      "Ð·Ð²Ð°": 5959,
      "ĠPe": 5960,
      "ĠÐ´ÐµÑĤ": 5961,
      "ĠHis": 5962,
      "Ġtele": 5963,
      "Ġteas": 5964,
      "ĠNow": 5965,
      "aph": 5966,
      "ĠJames": 5967,
      "Ġspecified": 5968,
      "ĠÐ¿ÑĢÐ¾ÐµÐº": 5969,
      "ibilities": 5970,
      "egin": 5971,
      "Ġsignals": 5972,
      "ĠÐŁÑĢÐ¸": 5973,
      "Ð¸Ð·Ð¸": 5974,
      "Ġequival": 5975,
      "onday": 5976,
      "Ġpopularity": 5977,
      "Ġconsidering": 5978,
      "ÑĥÐ´ÑĮ": 5979,
      "ĠÐºÐ¾Ð½ÑĤ": 5980,
      "ĠÐºÐ¾Ð½ÐºÑĢÐµÑĤ": 5981,
      "Ġcaffe": 5982,
      "poon": 5983,
      "Ġmathematic": 5984,
      "Ġrepresentation": 5985,
      "ĠPlay": 5986,
      "Ġdrink": 5987,
      "arlic": 5988,
      "izza": 5989,
      "Ġsurrounding": 5990,
      "Ġbeautiful": 5991,
      "ĠÐ²ÑĭÑģÐ¾Ðº": 5992,
      "68": 5993,
      "part": 5994,
      "ãĤ": 5995,
      "ĊĊĠĠĠĠĠĠĠ": 5996,
      "Ġtact": 5997,
      "rest": 5998,
      "Ġsem": 5999,
      "Ġband": 6000,
      "Ġlov": 6001,
      "Ġrev": 6002,
      "elines": 6003,
      "otes": 6004,
      "Ġiter": 6005,
      "ĠÐ²Ð»Ð°": 6006,
      "ĠAc": 6007,
      "Ġdeeper": 6008,
      "Ġvir": 6009,
      "Ð¾Ð»Ð½": 6010,
      "ĠMark": 6011,
      "Ġcontrast": 6012,
      "Ġhelped": 6013,
      "Ġsyn": 6014,
      "tenance": 6015,
      "Ġfollowed": 6016,
      "nesses": 6017,
      "Ġskin": 6018,
      "Ġlightweight": 6019,
      "Ġstudies": 6020,
      "Ġscientists": 6021,
      "Ġjoke": 6022,
      "Ġjobs": 6023,
      "Ġexperienced": 6024,
      "Ġoccurs": 6025,
      "Ġrecognition": 6026,
      "Ġdefinition": 6027,
      "ÑĢÐ¾ÑĪÐ¾": 6028,
      "Ġadventure": 6029,
      "ĠÐ¿Ð¾Ð·Ð²Ð¾Ð»Ñı": 6030,
      "ĠPractice": 6031,
      "AP": 6032,
      "Chor": 6033,
      "UR": 6034,
      "kens": 6035,
      "mark": 6036,
      "pace": 6037,
      "Ġign": 6038,
      "init": 6039,
      "Ġcop": 6040,
      "Ġpict": 6041,
      "Ġos": 6042,
      "Ġox": 6043,
      "roy": 6044,
      "igate": 6045,
      "Ġalign": 6046,
      "que": 6047,
      "ership": 6048,
      "Ġvib": 6049,
      "ĠÐ´Ð¾Ð¿Ð¾Ð»": 6050,
      "Ġshop": 6051,
      "ĠRep": 6052,
      "Ġevolution": 6053,
      "Ġworkout": 6054,
      "ĠÐ¸Ð·Ð¼ÐµÐ½": 6055,
      "ÑĪÐ¸ÑĤÑĮ": 6056,
      "Ġletters": 6057,
      "ÑīÐµÐ³Ð¾": 6058,
      "Ġwriter": 6059,
      "Ġenvironments": 6060,
      "ocker": 6061,
      "Ġtook": 6062,
      "Ġhimself": 6063,
      "ĠÑģÑĤÐ°ÑĤÑĮ": 6064,
      "Ġmorning": 6065,
      "Ġregarding": 6066,
      "ĠÐ¿ÑĢÐ¾Ð³ÑĢÐ°Ð¼Ð¼": 6067,
      "ĠÐ¿Ð¾ÑĤÑĢÐµÐ±": 6068,
      "ĠCalcul": 6069,
      "Ġreliable": 6070,
      "==": 6071,
      "ES": 6072,
      "Get": 6073,
      "ln": 6074,
      "max": 6075,
      "ped": 6076,
      "uke": 6077,
      "ÐĽ": 6078,
      "âĻ": 6079,
      "ĠÑĢÐ¸": 6080,
      "Ġtab": 6081,
      "Ġtitle": 6082,
      "Ġax": 6083,
      "Ġcogn": 6084,
      "isk": 6085,
      "Ġfuel": 6086,
      "Ġfemale": 6087,
      "omb": 6088,
      "Ġgather": 6089,
      "ĠIS": 6090,
      "ided": 6091,
      "Ġstir": 6092,
      "Ġconver": 6093,
      "Ġvoc": 6094,
      "Ð¾Ð³Ð»Ð°": 6095,
      "Ġwear": 6096,
      "Ġweap": 6097,
      "ĠGood": 6098,
      "Ġkit": 6099,
      "Ġunex": 6100,
      "âĢ¦": 6101,
      "Ġmaybe": 6102,
      "ĠInter": 6103,
      "Ġnews": 6104,
      "ĠÐ³Ð¾": 6105,
      "Ġnumpy": 6106,
      "Ġthank": 6107,
      "Ġrapid": 6108,
      "Ġcoordin": 6109,
      "Ġgrand": 6110,
      "Ġfinally": 6111,
      "Ġcharacteristics": 6112,
      "lik": 6113,
      "ÑģÑģÐ»ÐµÐ´": 6114,
      "Ð½ÑıÑĤÑĮ": 6115,
      "ĠÑĩÐ°ÑģÑĤÐ¾": 6116,
      "Ġargue": 6117,
      "Ġradio": 6118,
      "Ġmole": 6119,
      "Ġcyber": 6120,
      "Explain": 6121,
      "ĠInstead": 6122,
      "Ġprimarily": 6123,
      "ĠÐ±ÑĥÐ´Ñĥ": 6124,
      "Ġbirds": 6125,
      "Ġcups": 6126,
      "Chorus": 6127,
      "66": 6128,
      "87": 6129,
      "OST": 6130,
      "She": 6131,
      "making": 6132,
      "ned": 6133,
      "ĠÑģÑĤÐ¾Ð¸ÑĤ": 6134,
      "reg": 6135,
      "orous": 6136,
      "ancing": 6137,
      "Ġeating": 6138,
      "Ð»Ð¾Ðº": 6139,
      "Ġonto": 6140,
      "ĠÑģÐ¼": 6141,
      "Ð±Ð»Ð¸": 6142,
      "ĠRet": 6143,
      "ĠNational": 6144,
      "Ġdish": 6145,
      "ÐºÐ°Ð¼Ð¸": 6146,
      "Ġdesk": 6147,
      "Ġspaces": 6148,
      "Ġempt": 6149,
      "Ð¾Ð·Ð¼Ð¾Ð¶": 6150,
      "ĠÐ¸Ð·Ð²ÐµÑģÑĤ": 6151,
      "Ġflag": 6152,
      "Ġattract": 6153,
      "Ġproduced": 6154,
      "Ġrepair": 6155,
      "Ġarticle": 6156,
      "venune": 6157,
      "ĠÐ¿ÑĢÐµÐ´Ð»Ð¾Ð¶": 6158,
      "Ġanimation": 6159,
      "Ġidentity": 6160,
      "Ġcareer": 6161,
      "ĠEngine": 6162,
      "Does": 6163,
      "Ġinternal": 6164,
      "rastructure": 6165,
      "ĠÐ½ÐµÐ¹ÑĢÐ¾Ð½": 6166,
      "ĠÐ¶Ð¸Ð²": 6167,
      "Ġinfluenced": 6168,
      "Ġphenomenon": 6169,
      "âłĢâłĢ": 6170,
      "ĠÐ¼Ð½Ð¾Ð¶ÐµÑģÑĤÐ²Ð¾": 6171,
      "Ad": 6172,
      "Qu": 6173,
      "len": 6174,
      "message": 6175,
      "pow": 6176,
      "ql": 6177,
      "sort": 6178,
      "title": 6179,
      "zer": 6180,
      "zen": 6181,
      "Ġsin": 6182,
      "Ġpig": 6183,
      "icks": 6184,
      "iments": 6185,
      "Ġgender": 6186,
      "ÑĩÑĮ": 6187,
      "amin": 6188,
      "Ġconv": 6189,
      "ĠAccording": 6190,
      "Ġusage": 6191,
      "ÐµÐ½ÑĤÑĭ": 6192,
      "herry": 6193,
      "Ð¾Ð²Ð¾ÑĢ": 6194,
      "ĠMag": 6195,
      "Ð»Ð¸Ñı": 6196,
      "ĠOR": 6197,
      "ĠOff": 6198,
      "Ġclub": 6199,
      "Ġacadem": 6200,
      "Ġgets": 6201,
      "Ġprime": 6202,
      "Ġregions": 6203,
      "Ġhighlight": 6204,
      "Ġimproved": 6205,
      "Ġentertain": 6206,
      "ĠUnion": 6207,
      "Ġreader": 6208,
      "ĠAnother": 6209,
      "Ġzero": 6210,
      "Ġencounter": 6211,
      "Ġ:=": 6212,
      "Ġdelicious": 6213,
      "ĠÑĢÐ°Ð±Ð¾ÑĤÑĭ": 6214,
      "Ġfundamental": 6215,
      "Ġextremely": 6216,
      "Ġenemies": 6217,
      "Ġimmediately": 6218,
      "ĠMachine": 6219,
      "Ġdegree": 6220,
      "34": 6221,
      "97": 6222,
      "DO": 6223,
      "He": 6224,
      "Ph": 6225,
      "db": 6226,
      "free": 6227,
      "fitting": 6228,
      "grad": 6229,
      "pack": 6230,
      "Ã³": 6231,
      "Ġ__": 6232,
      "height": 6233,
      "eral": 6234,
      "esh": 6235,
      "uts": 6236,
      "ĠÐ¿Ð°ÑĢ": 6237,
      "illa": 6238,
      "Ġshows": 6239,
      "ellent": 6240,
      "ocument": 6241,
      "ĠRuss": 6242,
      "Ġcontra": 6243,
      "Ġimpossible": 6244,
      "Ð¾ÑĢÑĤÐ¸": 6245,
      "Ġoverview": 6246,
      "ĠÐ¾Ð±Ñī": 6247,
      "ĠÐ¿ÑĢÐ¸ÑĩÐ¸": 6248,
      "ĠÐ¿Ð¾ÑįÑĤÐ¾Ð¼Ñĥ": 6249,
      "lectric": 6250,
      "ÑĪÐ¸Ð¼": 6251,
      "Ġincred": 6252,
      "ĠÑģÐ²Ð¾ÐµÐ¹": 6253,
      "Ġglad": 6254,
      "Ċĉĉĉ": 6255,
      "Ġhyd": 6256,
      "ĠPlace": 6257,
      "ĠSpanish": 6258,
      "Ġharmful": 6259,
      "Ġexpected": 6260,
      "Ġemployees": 6261,
      "Ġbecoming": 6262,
      "ridge": 6263,
      "Ġinnovation": 6264,
      "ĠÑĥÑģÐ»Ð¾Ð²": 6265,
      "Ġcommercial": 6266,
      "gu": 6267,
      "mun": 6268,
      "ran": 6269,
      "}{": 6270,
      "atio": 6271,
      "Ġcou": 6272,
      "orter": 6273,
      "Ġpy": 6274,
      "stood": 6275,
      "ÑģÑĤÑĢÐµ": 6276,
      "Ð´Ð¾ÑĢ": 6277,
      "ĠÐ¸Ð¼ÐµÐ½": 6278,
      "Ġexcept": 6279,
      "ĠCo": 6280,
      "istry": 6281,
      "Ð¿Ð¾": 6282,
      "plt": 6283,
      "osure": 6284,
      "Ġchocolate": 6285,
      "Ġsex": 6286,
      "ÑĪÐµÐ½Ð¸Ðµ": 6287,
      "ogue": 6288,
      "ief": 6289,
      "ĠÑĥÐ³": 6290,
      "Ġsoil": 6291,
      "ĠUnder": 6292,
      "coming": 6293,
      "Ġinterf": 6294,
      "Ġformal": 6295,
      "Ġpersonality": 6296,
      "Ġ<<": 6297,
      "Ġseeking": 6298,
      "cription": 6299,
      "Ġinsights": 6300,
      "ĠÐ¿Ð¾Ð´ÑħÐ¾Ð´": 6301,
      "###": 6302,
      "Ð¿Ð°ÑģÐ¸Ð±Ð¾": 6303,
      "Ġprinting": 6304,
      "Ġfreed": 6305,
      "Ġoptimization": 6306,
      "ĠÐ±ÑĥÐ´ÑĥÑĤ": 6307,
      "Ġpredictions": 6308,
      "ĠÐ²ÐµÑĢÐ¾ÑıÑĤ": 6309,
      "Ġfulf": 6310,
      "Ġwait": 6311,
      "Ġinspired": 6312,
      "Ġguidance": 6313,
      "Ġmagnetic": 6314,
      "Ġnumerous": 6315,
      "Ġgrammar": 6316,
      "Ġfrequency": 6317,
      "ALL": 6318,
      "Cons": 6319,
      "ares": 6320,
      "bum": 6321,
      "bles": 6322,
      "Ìģ": 6323,
      "Ġtherm": 6324,
      "Ġcoding": 6325,
      "orrow": 6326,
      "ourag": 6327,
      "Ġhar": 6328,
      "enty": 6329,
      "iling": 6330,
      "ĠTest": 6331,
      "Ġstatic": 6332,
      "Ġann": 6333,
      "Ġproport": 6334,
      "Ġpropos": 6335,
      "ĠAust": 6336,
      "Ġmeat": 6337,
      "Ġleaves": 6338,
      "ĠDi": 6339,
      "Ġwealth": 6340,
      "ĠGame": 6341,
      "roup": 6342,
      "ÑĢÐ¾Ðµ": 6343,
      "Ġmanufact": 6344,
      "Ġtherefore": 6345,
      "etwork": 6346,
      "Ġincluded": 6347,
      "Ġthanks": 6348,
      "Ġinvent": 6349,
      "Ġassign": 6350,
      "Ġcoop": 6351,
      "Ġflavor": 6352,
      "Ġlapt": 6353,
      "Ġgreatly": 6354,
      "ginx": 6355,
      "ĠÐºÐ¾Ð½Ðµ": 6356,
      "ĠÐ²ÑģÐµÑħ": 6357,
      "Ġflowers": 6358,
      "Ġradius": 6359,
      "arbon": 6360,
      "Ġcritical": 6361,
      "Ġdocumentation": 6362,
      "ĠÐ¼ÐµÑĤÐ¾Ð´": 6363,
      "hetic": 6364,
      "Ġcomprehens": 6365,
      "OP": 6366,
      "link": 6367,
      "tes": 6368,
      "writ": 6369,
      "your": 6370,
      "Ġcelebr": 6371,
      "ĠÐ²Ð½Ð¸Ð¼Ð°": 6372,
      "advant": 6373,
      "Ġ\"\"\"": 6374,
      "ĠÐ´Ð¾Ð²": 6375,
      "Ġchosen": 6376,
      "ĠMed": 6377,
      "Ġintended": 6378,
      "ĠGra": 6379,
      "Ð¶ÐµÐ½Ð¸Ñı": 6380,
      "Ġuns": 6381,
      "Ġunlik": 6382,
      "Ġhelping": 6383,
      "ĠURL": 6384,
      "Ġprogression": 6385,
      "Ġplays": 6386,
      "standing": 6387,
      "ĠÐ¼Ð¾Ð¶ÐµÑĪÑĮ": 6388,
      "Ġattribut": 6389,
      "ĠÐ²Ð°ÑĢÐ¸Ð°Ð½": 6390,
      "ĠÑģÐ¾ÑģÑĤÐ¾Ñı": 6391,
      "Ġparad": 6392,
      "Ġsweet": 6393,
      "Ġensuring": 6394,
      "Ð¶Ð¸Ð²Ð°": 6395,
      "Ġremaining": 6396,
      "Ġtreatment": 6397,
      "ygame": 6398,
      "ĠÑįÐ»ÐµÐ¼ÐµÐ½ÑĤ": 6399,
      "Ġrepository": 6400,
      "82": 6401,
      "Ap": 6402,
      "Act": 6403,
      "Bob": 6404,
      "Sc": 6405,
      "Using": 6406,
      "Ver": 6407,
      "bur": 6408,
      "uit": 6409,
      "Ġcv": 6410,
      "Ġwoman": 6411,
      "Ġfill": 6412,
      "Ġfather": 6413,
      "Ġbeef": 6414,
      "ĠÐ¿Ð¾Ðº": 6415,
      "ĠÐ²Ð¾Ð»": 6416,
      "ĠAtt": 6417,
      "Ġexchange": 6418,
      "quest": 6419,
      "ĠÐ¾Ð´Ð¸Ð½": 6420,
      "Ġvan": 6421,
      "ÑĪÐºÐ¸": 6422,
      "ĠDr": 6423,
      "Ġcred": 6424,
      "Ġjoy": 6425,
      "Ġjump": 6426,
      "Ð¾Ð½Ð¾Ð¼Ð¸": 6427,
      "Ġarm": 6428,
      "enses": 6429,
      "ÐºÐ¸Ñħ": 6430,
      "Ġgenerating": 6431,
      "():": 6432,
      "Ġinfrastructure": 6433,
      "Ġlocations": 6434,
      "Ġextend": 6435,
      "venue": 6436,
      "Ġhappens": 6437,
      "ĠÐ»Ð¸Ñĩ": 6438,
      "ĠÐ´Ð¾ÑģÑĤÐ°ÑĤÐ¾": 6439,
      "Ġconnections": 6440,
      "ecause": 6441,
      "Ġfoods": 6442,
      "Ġmagn": 6443,
      "ÑĪÐ°ÑĤÑĮ": 6444,
      "ĠÐ²ÑģÐµÐ³Ð´Ð°": 6445,
      "Ġstream": 6446,
      "ĊĊĠĠ": 6447,
      "Ġencourage": 6448,
      "Ġoptimize": 6449,
      "ĠÑģÐ¾Ð·Ð´Ð°Ð½Ð¸Ñı": 6450,
      "Ġhighest": 6451,
      "ÐºÐ¾Ð¼ÐµÐ½": 6452,
      "Ð´ÑĭÐ¹": 6453,
      "ĠÐ¶Ð¸Ð·Ð½ÑĮ": 6454,
      "Ġdebate": 6455,
      "ĠÐ²Ð¾Ð·Ð¼Ð¾Ð¶Ð½Ð¾": 6456,
      "Ġconstantly": 6457,
      "Ġperspectives": 6458,
      "Ġspending": 6459,
      "ĠÐ¼ÑĥÐ·Ñĭ": 6460,
      "Ġbillion": 6461,
      "ĠÐ¾ÑĢÐ³Ð°": 6462,
      "75": 6463,
      ":,": 6464,
      "HP": 6465,
      "LP": 6466,
      "Make": 6467,
      "dent": 6468,
      "fol": 6469,
      "with": 6470,
      "Ð¨": 6471,
      "ĻÌ": 6472,
      "Ġcert": 6473,
      "ÐµÐ»Ð¸": 6474,
      "Ġwish": 6475,
      "Ġfiction": 6476,
      "Ġmid": 6477,
      "ÑģÐ½Ð¾": 6478,
      "ctors": 6479,
      "Ġrevolution": 6480,
      "ÑĥÑīÐµÑģÑĤÐ²": 6481,
      "ĠÐ¸ÑģÑģÐ»ÐµÐ´": 6482,
      "ĠSpe": 6483,
      "ĠSince": 6484,
      "udd": 6485,
      "ĠWould": 6486,
      "ĠEconom": 6487,
      "ĠÐ½Ð°ÑĪ": 6488,
      "ÑĨÐµÐ½": 6489,
      "They": 6490,
      "Ġwaste": 6491,
      "ĠÑĥÑĩ": 6492,
      "Ġfear": 6493,
      "ĠÐ³ÐµÐ½": 6494,
      "Inter": 6495,
      "Ġfolder": 6496,
      "ĠÑĤÐ°ÐºÐ¾Ð¹": 6497,
      "Ġcompute": 6498,
      "Ġ.--": 6499,
      "Ġflav": 6500,
      "ÑĤÐµÐ»ÑĮÐ½ÑĭÑħ": 6501,
      "Ġexpensive": 6502,
      "Ġelaborate": 6503,
      "iveness": 6504,
      "Ġpresence": 6505,
      "ĠHTTP": 6506,
      "Ð¼Ð¾ÑģÑĤÐ¸": 6507,
      "Ġrolls": 6508,
      "Ġreviews": 6509,
      "Ġsurvive": 6510,
      "Ġlabel": 6511,
      "ĠWebSocket": 6512,
      "ĠÐºÐ¾Ð¼Ð¿ÑĮÑİÑĤÐµÑĢ": 6513,
      "LC": 6514,
      "PG": 6515,
      "acles": 6516,
      "iers": 6517,
      "vest": 6518,
      "Ð¥": 6519,
      "inant": 6520,
      "Ġspl": 6521,
      "Ġsell": 6522,
      "itate": 6523,
      "Ġfelt": 6524,
      "Ġbaking": 6525,
      "icking": 6526,
      "Ġthick": 6527,
      "Ġhon": 6528,
      "Ð»ÐµÑĤ": 6529,
      "Ġgaming": 6530,
      "Ġstri": 6531,
      "Ġproced": 6532,
      "Ġalone": 6533,
      "ĠPi": 6534,
      "ptions": 6535,
      "ÑĤÐµÐ»ÐµÐ¹": 6536,
      "Ġseconds": 6537,
      "Ð»Ð¸ÑĩÐ°": 6538,
      "result": 6539,
      "ĠWestern": 6540,
      "Ð°ÐºÐ°": 6541,
      "ĠEnder": 6542,
      "ÑĨÑĥ": 6543,
      "api": 6544,
      "ĊĠĠĠĠĊĠĠĠ": 6545,
      "Ð¾ÑĤÑı": 6546,
      "config": 6547,
      "comes": 6548,
      "pha": 6549,
      "Ġparty": 6550,
      "ĠÐ¿ÑĢÐ¾ÑĤÐ¸Ð²": 6551,
      "tainer": 6552,
      "ĠÑĤÐµÐ±Ðµ": 6553,
      "Ġgoods": 6554,
      "ÑĩÐµÑģÐºÐ¸Ð¹": 6555,
      "ashing": 6556,
      "ĠConst": 6557,
      "Ġchanged": 6558,
      "Ð¹ÑĤÐµÑģÑĮ": 6559,
      "Ġmonitor": 6560,
      "ship": 6561,
      "Ġlogo": 6562,
      "Ġbenefit": 6563,
      "Ġsociet": 6564,
      "Ġparameter": 6565,
      "ĠÐºÐ°Ð¶Ð´": 6566,
      "Ġmissing": 6567,
      "Ġstrengths": 6568,
      "ĠÐ¸ÑģÐ¿Ð¾Ð»ÑĮÐ·ÑĥÐµÑĤÑģÑı": 6569,
      "Ġimagine": 6570,
      "Ġbirth": 6571,
      "Ġfruit": 6572,
      "Ġsupplies": 6573,
      "ĠLearning": 6574,
      "ĠDiffusion": 6575,
      "ĠCSV": 6576,
      "Ġcaffeine": 6577,
      "Ġunlikely": 6578,
      "Col": 6579,
      "qrt": 6580,
      "rig": 6581,
      "td": 6582,
      "Ġtit": 6583,
      "Ġtal": 6584,
      "atur": 6585,
      "Ġfro": 6586,
      "Ġmale": 6587,
      "Ġincome": 6588,
      "arter": 6589,
      "Ġlived": 6590,
      "unning": 6591,
      "urt": 6592,
      "Ġdeal": 6593,
      "Ġdele": 6594,
      "Ð±ÑĥÐ´ÑĮ": 6595,
      "ĠMox": 6596,
      "Ġplans": 6597,
      "ĠÐ½Ð°Ð·ÑĭÐ²Ð°": 6598,
      "ocur": 6599,
      "ague": 6600,
      "())": 6601,
      "ÑĤÐµÐ»ÑĮÐ½ÑĭÐµ": 6602,
      "Ġestim": 6603,
      "ĠÑģÐ²Ð¾Ñİ": 6604,
      "Ġsquared": 6605,
      "being": 6606,
      "Ġocc": 6607,
      "ÑİÑīÐ¸Ðµ": 6608,
      "Ġdescribed": 6609,
      "ĠÐ¿Ð¾ÑģÐ»Ðµ": 6610,
      "Ġschol": 6611,
      "Ġpreviously": 6612,
      "ĠAmerica": 6613,
      "aws": 6614,
      "ĠÐ·Ð°Ð´Ð°Ñĩ": 6615,
      "ĠBritain": 6616,
      "ĠBlue": 6617,
      "Ġabsor": 6618,
      "Ġsurvival": 6619,
      "ĠÐĹÐ°": 6620,
      "Ġelectricity": 6621,
      "Ġflexible": 6622,
      "Ġappreciate": 6623,
      "Ġschedule": 6624,
      "Ġequivalent": 6625,
      "Ġempty": 6626,
      "33": 6627,
      "85": 6628,
      "90": 6629,
      "Des": 6630,
      "Reg": 6631,
      "UI": 6632,
      "aign": 6633,
      "bash": 6634,
      "press": 6635,
      "rust": 6636,
      "ued": 6637,
      "yd": 6638,
      "Ã¡": 6639,
      "Ð¤": 6640,
      "Ġ×": 6641,
      "ĠÑģÑĤÐ¸": 6642,
      "Ġille": 6643,
      "Ġten": 6644,
      "Ġtail": 6645,
      "Ġsection": 6646,
      "Ġpizza": 6647,
      "Ġmood": 6648,
      "Ġtold": 6649,
      "lean": 6650,
      "icing": 6651,
      "Ġgarlic": 6652,
      "step": 6653,
      "ĠÐ²Ð¾ÑĤ": 6654,
      "ĠAf": 6655,
      "Ġdeploy": 6656,
      "Ġleaving": 6657,
      "Ð»Ð¸Ð¹": 6658,
      "ĠÐ±Ð»Ð°": 6659,
      "ĠLAION": 6660,
      "ĠÑĤÑĢÐ°": 6661,
      "ÑģÐºÐ¸Ñħ": 6662,
      "ĠNum": 6663,
      "ĠÐ¿ÑĢÐ¸Ð²ÐµÑģÑĤÐ¸": 6664,
      "Ð·Ð°ÑĤÑĮ": 6665,
      "Ġ2022": 6666,
      "Ġleads": 6667,
      "ĠÐ¿Ð¾Ð»ÐµÐ·": 6668,
      "ĠÐ¿Ð¾Ð»ÑĥÑĩÐ°": 6669,
      "ĠĠĠĠĠĠĠĠĠĠĠĠĠĠĠĠĠĠĠĠĠĠĠĠĠĠĠĠĠĠĠĠ": 6670,
      "Ġprotocol": 6671,
      "Ð¡Ð¿Ð°ÑģÐ¸Ð±Ð¾": 6672,
      "Ġconcise": 6673,
      "ĠÑĨÐ²ÐµÑĤ": 6674,
      "Process": 6675,
      "Ġvalidation": 6676,
      "Ġbranches": 6677,
      "Ġcolumns": 6678,
      "Ġefforts": 6679,
      "Ġdimensions": 6680,
      "ĠÐ¾Ð±Ð»Ð°ÑģÑĤÐ¸": 6681,
      "ĠÑĢÐ°Ð·Ð»Ð¸ÑĩÐ½ÑĭÑħ": 6682,
      "Ġindependent": 6683,
      "ĠÑĨÐµÐ»Ð¾Ð¼": 6684,
      "Ġcitiz": 6685,
      "Ġderivative": 6686,
      "='": 6687,
      "Feed": 6688,
      "Oh": 6689,
      "Pr": 6690,
      "dim": 6691,
      "ua": 6692,
      "ðĿ": 6693,
      "ĠÑĢÑĭ": 6694,
      "Ġwire": 6695,
      "Ġfly": 6696,
      "Ġfict": 6697,
      "arn": 6698,
      "Ġthus": 6699,
      "ÑģÑĤÑĢÐ¸": 6700,
      "ĠÐ²Ð½Ðµ": 6701,
      "Ġcanvas": 6702,
      "Ġconvent": 6703,
      "Ġalbum": 6704,
      "rients": 6705,
      "open": 6706,
      "Ġimplications": 6707,
      "izon": 6708,
      "ĠÐ½Ð°ÑĩÐ¸": 6709,
      "acter": 6710,
      "ĠList": 6711,
      "ĠOur": 6712,
      "ousand": 6713,
      "ĠÑįÐ¼Ð¾": 6714,
      "Ġservers": 6715,
      "Ġsimulation": 6716,
      "Ð¼Ð°ÑĤÐ¸": 6717,
      "Ġcalend": 6718,
      "tty": 6719,
      "Ġ/>": 6720,
      "ĠÐºÐ°ÑĢ": 6721,
      "ĠÐ¸ÑģÐ¿Ð¾Ð»ÑĮÐ·Ð¾Ð²Ð°Ð½Ð¸Ñı": 6722,
      "Ġcarry": 6723,
      "ĠÐ´Ð¾ÑģÑĤÐ¸": 6724,
      "ĠÐ´ÑĢÑĥÐ³Ð¾Ð¹": 6725,
      "Ġmaintaining": 6726,
      "Ġspecialized": 6727,
      "Ġsorted": 6728,
      "number": 6729,
      "going": 6730,
      "ĠÐ¾Ð¿ÑĢÐµÐ´ÐµÐ»": 6731,
      "ĠÐ´ÐµÐ»Ð°ÑĤÑĮ": 6732,
      "ĠÐ´Ð¾Ð»Ð¶ÐµÐ½": 6733,
      "speed": 6734,
      "Ġpurchase": 6735,
      "Ð¸ÑĤÑĥÐ°": 6736,
      "ĠÑįÑĦÑĦÐµÐºÑĤÐ¸Ð²": 6737,
      "All": 6738,
      "OM": 6739,
      "coh": 6740,
      "des": 6741,
      "âĪ": 6742,
      "Ġ)": 6743,
      "Ġtall": 6744,
      "Ġtrib": 6745,
      "Ġsizes": 6746,
      "itarian": 6747,
      "Ġburn": 6748,
      "ÑĢÐµÐ½": 6749,
      "Ġhat": 6750,
      "Ġreve": 6751,
      "etary": 6752,
      "cend": 6753,
      "unge": 6754,
      "ĠÑģÐ¸ÑĤÑĥÐ°": 6755,
      "ĠAb": 6756,
      "ĠSch": 6757,
      "ĠCity": 6758,
      "Ġdecre": 6759,
      "rier": 6760,
      "Ð¾Ð»Ð¾Ð³": 6761,
      "Ð»Ð¸Ð¾ÑĤÐµ": 6762,
      "Ġshorter": 6763,
      "udo": 6764,
      "ĠDNA": 6765,
      "ĠBob": 6766,
      "ĠFind": 6767,
      "ĠÐ½ÐµÐ¿": 6768,
      "Ð¾Ð¶Ð¸": 6769,
      "Ġmodified": 6770,
      "Ġoutcome": 6771,
      "ÑĨÐ¸ÐµÐ¹": 6772,
      "Ġdishes": 6773,
      "ÐºÐ¸Ð¹": 6774,
      "ĠÑĤÐµÐ»Ðµ": 6775,
      "ĠÐĴÐ¾ÑĤ": 6776,
      "Ġinfl": 6777,
      "ĠÐ¿ÑĢÐ¾Ð´Ð¾Ð»": 6778,
      "ifying": 6779,
      "Ð»ÑĥÐ±": 6780,
      "ĠRead": 6781,
      "ĠÐ¼Ð°ÑĤÐµÑĢÐ¸": 6782,
      "ĠÑĤÐ¾ÑĢ": 6783,
      "Ġcontaining": 6784,
      "ĠProvide": 6785,
      "shape": 6786,
      "Ġcombined": 6787,
      "ĠArt": 6788,
      "ounc": 6789,
      "Ġstudying": 6790,
      "Ġpaid": 6791,
      "Ð½ÑĥÑĤÑĮ": 6792,
      "Ġcircle": 6793,
      "Ġmassive": 6794,
      "Ġsensitive": 6795,
      "reshold": 6796,
      "Ġfacing": 6797,
      "Ġmixed": 6798,
      "Ð¸Ð±Ð»Ð¸Ð¾ÑĤÐµ": 6799,
      "Ġbeauty": 6800,
      "Ġcrops": 6801,
      "Ġlicense": 6802,
      "Ġelectrical": 6803,
      "Ġreligious": 6804,
      "ĠÐ¸ÑģÐºÑĥÑģ": 6805,
      "Ġpandas": 6806,
      "Ġenhance": 6807,
      "Ġprioritize": 6808,
      "Ġunexpected": 6809,
      "Ġcontradict": 6810,
      "cohol": 6811,
      "build": 6812,
      "equ": 6813,
      "lor": 6814,
      "page": 6815,
      "«Ì": 6816,
      "Ġafra": 6817,
      "Ð¾ÑĢÐµ": 6818,
      "iter": 6819,
      "Ġpen": 6820,
      "Ġyes": 6821,
      "Ġease": 6822,
      "raints": 6823,
      "ĠText": 6824,
      "ĠÑģÐ¾ÑĤ": 6825,
      "ĠSol": 6826,
      "antic": 6827,
      "Ġneut": 6828,
      "ÑĤÐ¾ÑĢÐ¸": 6829,
      "Ð½Ð¸Ð±ÑĥÐ´ÑĮ": 6830,
      "ĠDuring": 6831,
      "ĠEnd": 6832,
      "ĠÑĥÑĩÐ¸": 6833,
      "ÑĢÐ¾ÑģÑĤ": 6834,
      "anguage": 6835,
      "ought": 6836,
      "curl": 6837,
      "oyal": 6838,
      "Ġagre": 6839,
      "Ġplane": 6840,
      "Ð¼ÐµÐ½ÑĮ": 6841,
      "Step": 6842,
      "Ġachieved": 6843,
      "ÑģÐºÐ°Ð¶Ð¸": 6844,
      "ĠÐ¶ÐµÐ»Ð°": 6845,
      "ugment": 6846,
      "Ġdetection": 6847,
      "color": 6848,
      "ĠÑģÐ¾Ð²ÐµÑĤ": 6849,
      "ĠÐ¿Ð¾Ð¿ÑĢÐ¾Ð±": 6850,
      "ĠÑģÐ¸ÑģÑĤÐµÐ¼Ñĭ": 6851,
      "Comp": 6852,
      "Ġtranslate": 6853,
      "center": 6854,
      "Ð¾Ð¼Ð¸Ð½Ð°": 6855,
      "plotlib": 6856,
      "Ġdedicated": 6857,
      "Ġcuis": 6858,
      "Client": 6859,
      "Ġinjury": 6860,
      "ĠÐ¼Ð¾Ð´ÐµÐ»ÑĮ": 6861,
      "Ð¿ÐµÑĢÑĮ": 6862,
      "Ġcampaign": 6863,
      "Ġresearchers": 6864,
      "Ġafraid": 6865,
      "27": 6866,
      "35": 6867,
      "Finally": 6868,
      "RI": 6869,
      "hib": 6870,
      "iate": 6871,
      "ris": 6872,
      "uber": 6873,
      "whel": 6874,
      "Ġsays": 6875,
      "Ġbodies": 6876,
      "rote": 6877,
      "Ġthrow": 6878,
      "Ġbeat": 6879,
      "Ġstim": 6880,
      "Ð´ÐµÐ½": 6881,
      "unc": 6882,
      "Ġdegre": 6883,
      "ÑĤÐ¾ÑĢÐ°": 6884,
      "ĠMoon": 6885,
      "Ð³ÐµÐ½": 6886,
      "Ġseed": 6887,
      "ĠGive": 6888,
      "ĠGraph": 6889,
      "ĠÑĤÐ°": 6890,
      "Ġcreativity": 6891,
      "Ð¾Ð¶ÐµÑĤ": 6892,
      "blem": 6893,
      "anges": 6894,
      "ansion": 6895,
      "ĠÑĥÐ·Ð½Ð°": 6896,
      "Ġdisadvant": 6897,
      "Ing": 6898,
      "Ġemiss": 6899,
      "ÑĩÐ¸Ñģ": 6900,
      "Ġsetup": 6901,
      "ĠÐµÐµ": 6902,
      "phone": 6903,
      "Ġraise": 6904,
      "ÐµÐ»Ð¾": 6905,
      "Ġattend": 6906,
      "Ġdistances": 6907,
      "Ġclassification": 6908,
      "Ġtypical": 6909,
      "Ð»ÑĥÑĩ": 6910,
      "Ġpassion": 6911,
      "Ġveh": 6912,
      "Ġtests": 6913,
      "Ġstatements": 6914,
      "Ġconcent": 6915,
      "Ġinfluential": 6916,
      "Ġappears": 6917,
      "ĠÑħÐ¾ÑĤÐ¸ÑĤÐµ": 6918,
      "column": 6919,
      "Ġstandards": 6920,
      "Ġclosed": 6921,
      "ĠÑįÑĤÐ¸Ñħ": 6922,
      "Ġinfinite": 6923,
      "ĠâĪ": 6924,
      "ĠÐºÐ»Ð°ÑģÑģ": 6925,
      "ĠÐ¿ÑĢÐ¾Ð´ÑĥÐºÑĤ": 6926,
      "Ġcryptocur": 6927,
      "Ġgradually": 6928,
      "Ġastron": 6929,
      "Ġlandscape": 6930,
      "ĠÐ¸ÑģÑħÐ¾Ð´": 6931,
      "Ġfictional": 6932,
      "Ġdegrees": 6933,
      "[\"": 6934,
      "count": 6935,
      "dist": 6936,
      "hop": 6937,
      "rs": 6938,
      "such": 6939,
      "Ã¤": 6940,
      "Ġou": 6941,
      "Ġsnow": 6942,
      "Ġcas": 6943,
      "Ġcry": 6944,
      "Ġwinter": 6945,
      "Ġwalking": 6946,
      "ences": 6947,
      "ÑģÑĥÑĤ": 6948,
      "Ð½ÐµÐ¼": 6949,
      "Ġthousand": 6950,
      "uses": 6951,
      "Ġnorm": 6952,
      "ÑĥÐ»ÑıÑĢ": 6953,
      "std": 6954,
      "Ġstuff": 6955,
      "urther": 6956,
      "sect": 6957,
      "pload": 6958,
      "osition": 6959,
      "ĠÐ´Ð¾Ð¼": 6960,
      "Ġmax": 6961,
      "Ð½Ð¸Ñİ": 6962,
      "ĠBefore": 6963,
      "ĠÐ½Ð°Ð¹ÑĤÐ¸": 6964,
      "ĠGre": 6965,
      "ĠÐ±Ð¸Ð±Ð»Ð¸Ð¾ÑĤÐµ": 6966,
      "Ġcontract": 6967,
      "index": 6968,
      "Ð»ÑĮÐ½ÑĭÐ¹": 6969,
      "Ġscr": 6970,
      "Ġclients": 6971,
      "Ġcluster": 6972,
      "ĠNot": 6973,
      "ÑĤÐ¸ÑĤÑĮ": 6974,
      "ĠÑĢÐ°Ð²": 6975,
      "ensional": 6976,
      "ĠJack": 6977,
      "Ġoverwhel": 6978,
      "ĠÐ¾Ð±ÑīÐµ": 6979,
      "Ġapps": 6980,
      "iano": 6981,
      "Ġ[]": 6982,
      "Ġdecide": 6983,
      "Ġversat": 6984,
      "Ġcalculated": 6985,
      "ooting": 6986,
      "Ð¾Ð²ÑĭÐ¹": 6987,
      "Ġcris": 6988,
      "Ġpawn": 6989,
      "Ġviews": 6990,
      "Ġaffected": 6991,
      "Ġindustrial": 6992,
      "lands": 6993,
      "Ġdatasets": 6994,
      "Ġphotos": 6995,
      "ÐĿÐ°Ð¿Ð¸ÑĪÐ¸": 6996,
      "Ġflexibility": 6997,
      "Ġterrain": 6998,
      "ĠĠĠĠĠĠĠĠĠĠĠĠĠĠĠĠĠĠĠĠĠĠĠĠĠĠĠ": 6999,
      "Ġbanking": 7000,
      "Ġevaluate": 7001,
      "ĠÐ½ÐµÐºÐ¾ÑĤÐ¾ÑĢÑĭÐµ": 7002,
      "Ġopposite": 7003,
      "Ġcuisine": 7004,
      "''": 7005,
      "28": 7006,
      "Be": 7007,
      "EO": 7008,
      "File": 7009,
      "Link": 7010,
      "Use": 7011,
      "Ultimately": 7012,
      "case": 7013,
      "mber": 7014,
      "Ġvelocity": 7015,
      "inner": 7016,
      "Ġcrow": 7017,
      "Ġcodes": 7018,
      "itely": 7019,
      "Ġyellow": 7020,
      "Ð»Ð»Ð¸": 7021,
      "elon": 7022,
      "Ġstra": 7023,
      "ĠAnt": 7024,
      "ategor": 7025,
      "quare": 7026,
      "ĠSil": 7027,
      "istical": 7028,
      "ĠÐºÑĢÐ¸": 7029,
      "Ġvict": 7030,
      "thread": 7031,
      "output": 7032,
      "ighter": 7033,
      "ĠÐ´ÑĢÑĥ": 7034,
      "ĠHer": 7035,
      "Ġrig": 7036,
      "ĠMonday": 7037,
      "Ġ1000": 7038,
      "Ġworry": 7039,
      "Ġplastic": 7040,
      "Ġplenty": 7041,
      "Ġtech": 7042,
      "ĠÑĥÐ¼": 7043,
      "Ġjson": 7044,
      "ĠNone": 7045,
      "Ġdiffusion": 7046,
      "Ġoutcomes": 7047,
      "Ð¾Ð²Ð°Ñı": 7048,
      "Ġfunny": 7049,
      "Ð¾ÑĤÐ°": 7050,
      "ĠÐµÑīÐµ": 7051,
      "Ġexperts": 7052,
      "Ġassess": 7053,
      "Ġmaintenance": 7054,
      "Ġperformed": 7055,
      "Ġgreatest": 7056,
      "Ġtrading": 7057,
      "Ġsheet": 7058,
      "ĠÑģÐ²Ð¾Ð¸Ñħ": 7059,
      "Ġafford": 7060,
      "ĠÑıÐ²Ð»ÑıÑİÑĤÑģÑı": 7061,
      "arbage": 7062,
      "Ġroots": 7063,
      "Ġexcellent": 7064,
      "Ġdivide": 7065,
      "Ġconsumption": 7066,
      "ĠÑįÐºÐ¾Ð½Ð¾Ð¼Ð¸": 7067,
      "ĠÑĢÐ°Ð·Ð»Ð¸ÑĩÐ½ÑĭÐµ": 7068,
      "Ġmelody": 7069,
      "Ġmonths": 7070,
      "Ġmerge": 7071,
      "Ġdefeat": 7072,
      "Ġsecret": 7073,
      "ĠÐºÐ¾Ð»Ð¸ÑĩÐµÑģÑĤÐ²Ð¾": 7074,
      "Ġaccompl": 7075,
      "Ġcorrespond": 7076,
      "ĠÑģÐ¾Ð¾ÑĤÐ²ÐµÑĤÑģÑĤÐ²": 7077,
      "29": 7078,
      "39": 7079,
      "CE": 7080,
      "Event": 7081,
      "Great": 7082,
      "Good": 7083,
      "Par": 7084,
      "Val": 7085,
      "gn": 7086,
      "live": 7087,
      "long": 7088,
      "Âł": 7089,
      "ini": 7090,
      "erver": 7091,
      "Ġpages": 7092,
      "Ġmask": 7093,
      "Ġbrought": 7094,
      "imin": 7095,
      "ĠTrain": 7096,
      "ÑģÑĤÐ¾Ð¹": 7097,
      "ĠÐ²ÑħÐ¾Ð´": 7098,
      "Ġprove": 7099,
      "ĠAge": 7100,
      "Ġcomment": 7101,
      "Ġnotice": 7102,
      "Ġabst": 7103,
      "ĠRAM": 7104,
      "ĠÑĩÐ¸ÑĤÐ°": 7105,
      "Ġliqu": 7106,
      "Ġdates": 7107,
      "Ð¾Ð±ÑĢÐ°Ð·": 7108,
      "0000": 7109,
      "Ġrob": 7110,
      "Ð¾Ð¿Ð°Ñģ": 7111,
      "ĠÑĢÐµÐºÐ¾Ð¼ÐµÐ½": 7112,
      "Ġleader": 7113,
      "ĠÑģÐ¾ÑĨÐ¸Ð°Ð»ÑĮ": 7114,
      "ĠÐ¿Ð¾Ð»ÑĥÑĩ": 7115,
      "Ġmultip": 7116,
      "ĠÐ¾Ð¿ÐµÑĢÐ°": 7117,
      "Ġsuggests": 7118,
      "Ġfoundation": 7119,
      "Ġmovies": 7120,
      "ĠExpl": 7121,
      "Ġolder": 7122,
      "Ġblockchain": 7123,
      "Ġaudio": 7124,
      "Change": 7125,
      "Ġexecute": 7126,
      "Ġembedd": 7127,
      "Ġprecise": 7128,
      "Ġultimately": 7129,
      "ÐŁÑĢÐ¸Ð²ÐµÑĤ": 7130,
      "Assistant": 7131,
      "Ġtunn": 7132,
      "Ġbreath": 7133,
      "Ġexpertise": 7134,
      "Ġtomato": 7135,
      "aspberry": 7136,
      "ĠÑħÐ¾ÑĩÑĥ": 7137,
      "ĠAfric": 7138,
      "After": 7139,
      "Copy": 7140,
      "Em": 7141,
      "Go": 7142,
      "OT": 7143,
      "SP": 7144,
      "cast": 7145,
      "fin": 7146,
      "local": 7147,
      "mm": 7148,
      "test": 7149,
      "Â²": 7150,
      "Íİ": 7151,
      "ĊĊĉ": 7152,
      "Ġtk": 7153,
      "rely": 7154,
      "Ġsix": 7155,
      "attle": 7156,
      "Ġcities": 7157,
      "ora": 7158,
      "ÑĤÑĢÐ°": 7159,
      "Ġwaves": 7160,
      "Ġfantasy": 7161,
      "arge": 7162,
      "arry": 7163,
      "icit": 7164,
      "Ð»Ð¾Ð¼": 7165,
      "Ġrely": 7166,
      "Ġrender": 7167,
      "raction": 7168,
      "ĠÐ²Ð½ÑĥÑĤ": 7169,
      "ĠAct": 7170,
      "send": 7171,
      "security": 7172,
      "gebra": 7173,
      "Ð¾Ð²ÐµÑĤ": 7174,
      "Ġheld": 7175,
      "ĠÐ´ÐµÐ½ÑĮ": 7176,
      "resistant": 7177,
      "Ġupper": 7178,
      "socket": 7179,
      "formation": 7180,
      "ĠÑĥÑģÐ¿Ðµ": 7181,
      "aching": 7182,
      "Ġmyster": 7183,
      "Ð´Ð°ÐµÑĤ": 7184,
      "ÑĩÐ¸ÑĤÑĮ": 7185,
      "ĠÐ¿ÑĢÐ¸Ð¼ÐµÐ½": 7186,
      "Ġindic": 7187,
      "Ġindicate": 7188,
      "ÑģÑĤÑĮÑİ": 7189,
      "ÑĥÑİÑĤÑģÑı": 7190,
      "Ġsold": 7191,
      "ĠÑĦÐ¸Ð·Ð¸": 7192,
      "ÑĩÐµÑģÐºÐ¾Ð³Ð¾": 7193,
      "Ġreferences": 7194,
      "ttuce": 7195,
      "ĠÐ¿ÑĢÐµÐ´Ð¾": 7196,
      "Ġconstraints": 7197,
      "Ġoperation": 7198,
      "Ġcalculus": 7199,
      "Ġdemocr": 7200,
      "prise": 7201,
      "poons": 7202,
      "cribe": 7203,
      "Ġcards": 7204,
      "ĠÐ²Ð¸Ð´": 7205,
      "Ġcarefully": 7206,
      "Ġturned": 7207,
      "Ð¾Ð¶ÐµÑĪÑĮ": 7208,
      "Ġbroken": 7209,
      "Cont": 7210,
      "Ġrecognize": 7211,
      "coin": 7212,
      "ĠÐ¾Ð³ÑĢÐ°Ð½Ð¸": 7213,
      "ĠÐ¸ÑģÑĤÐ¾Ñĩ": 7214,
      "Ġdomain": 7215,
      "ĠÐ·Ð°Ð²Ð¸ÑģÐ¸ÑĤ": 7216,
      "ĠTwitter": 7217,
      "display": 7218,
      "ĠÑĢÐ°Ð±Ð¾ÑĤÐ°ÐµÑĤ": 7219,
      "Ġinstrument": 7220,
      "Ġphrase": 7221,
      "Ġfreedom": 7222,
      "!!": 7223,
      "(&": 7224,
      "67": 7225,
      "CL": 7226,
      "FF": 7227,
      "bed": 7228,
      "window": 7229,
      "ying": 7230,
      "zy": 7231,
      "Ġaer": 7232,
      "herent": 7233,
      "erry": 7234,
      "Ġwife": 7235,
      "Ġwindows": 7236,
      "Ġwrote": 7237,
      "ening": 7238,
      "Ġfans": 7239,
      "Ġmouth": 7240,
      "Ġmobile": 7241,
      "Ġbra": 7242,
      "Ġboot": 7243,
      "ÐºÑĢÐ°": 7244,
      "ÐºÐ»Ð°": 7245,
      "eless": 7246,
      "ĠTele": 7247,
      "ĠTHE": 7248,
      "Ð´ÑĮ": 7249,
      "ĠÑģÑĭ": 7250,
      "kend": 7251,
      "ÑĢÐ°Ð²Ð»Ñı": 7252,
      "osity": 7253,
      "ĠDrag": 7254,
      "ĠĠĠĠĠĠĠĠĠĠĠĠĠĠ": 7255,
      "artment": 7256,
      "ĠGPS": 7257,
      "ĠRE": 7258,
      "ĠRem": 7259,
      "ĠÑĤÑĢÑĥÐ´": 7260,
      "anging": 7261,
      "ĠUsing": 7262,
      "pending": 7263,
      "ĠÑĤÐµÐ±Ñı": 7264,
      "ÑĪÐ¸Ð¹": 7265,
      "Ġcharge": 7266,
      "Ġpoem": 7267,
      "ĠÑĢÐµÐ°Ð»ÑĮ": 7268,
      "ĠÑĢÐµÑĪÐµÐ½Ð¸Ñı": 7269,
      "ĠÑĢÐµÐ²Ð¾Ð»Ñİ": 7270,
      "ĠÑģÐ¾Ñħ": 7271,
      "ĠÐºÐ¾ÑĤÐ¾ÑĢÑĭÑħ": 7272,
      "Ġcenturies": 7273,
      "ĠÐºÐ¾Ð¼Ð¿Ð°": 7274,
      "Ġfocuses": 7275,
      "Ġbasis": 7276,
      "Ġ:)": 7277,
      "Ġstores": 7278,
      "Ġintegers": 7279,
      "ĠÐºÑĥÐ»ÑĮ": 7280,
      "Ġcycle": 7281,
      "Ġphilosop": 7282,
      "Ġdepth": 7283,
      "ĠÑģÐ¾Ð±Ð¾Ð¹": 7284,
      "IDTH": 7285,
      "Ġdescriptions": 7286,
      "Ġslowly": 7287,
      "ĠÑĥÐ¿ÑĢÐ°Ð²": 7288,
      "ĠÐ¾ÑģÐ½Ð¾Ð²Ðµ": 7289,
      "response": 7290,
      "Ġmotivated": 7291,
      "ĠResearch": 7292,
      "Ġfailure": 7293,
      "Ġuncertain": 7294,
      "ouncil": 7295,
      "GB": 7296,
      "Gener": 7297,
      "IC": 7298,
      "Le": 7299,
      "code": 7300,
      "game": 7301,
      "pg": 7302,
      "rc": 7303,
      "rary": 7304,
      "sign": 7305,
      "sudo": 7306,
      "īÌ": 7307,
      "Ġcars": 7308,
      "arp": 7309,
      "Ġep": 7310,
      "Ġlock": 7311,
      "idents": 7312,
      "otic": 7313,
      "urs": 7314,
      "ĠÑģÐºÐ°Ð·Ð°": 7315,
      "ĠAlex": 7316,
      "ĠSub": 7317,
      "Ġdeck": 7318,
      "cker": 7319,
      "ÑĤÐ¾ÑĢÐ¾Ð²": 7320,
      "ĠPick": 7321,
      "Ġnoting": 7322,
      "ĠFace": 7323,
      "ĠLi": 7324,
      "Ġcream": 7325,
      "ĠÐ·Ð´Ð¾ÑĢ": 7326,
      "ĠÑĥÑĩÐ°": 7327,
      "Ġdiffer": 7328,
      "ĠJan": 7329,
      "ÑĩÐµÐ³Ð¾": 7330,
      "iped": 7331,
      "ĠÐ¿ÑĢÐ¸Ð³Ð¾ÑĤÐ¾Ð²": 7332,
      "tex": 7333,
      "Ġinstances": 7334,
      "Ġstrange": 7335,
      "(),": 7336,
      "ÑĢÐµÐ´Ð¸": 7337,
      "ĠÐ¿ÑĢÐ¾Ð¸Ñģ": 7338,
      "ĠKore": 7339,
      "Ġassets": 7340,
      "Ġrace": 7341,
      "Ġ45": 7342,
      "Ġcomputational": 7343,
      "Ġrecip": 7344,
      "ÑĤÐµÐ»ÑĮÐ½Ð¾ÑģÑĤÐ¸": 7345,
      "Ġobjective": 7346,
      "iences": 7347,
      "ÐĴÐ¾ÑĤ": 7348,
      "Ġeditor": 7349,
      "ĠÐ»Ð¸ÑĪÑĮ": 7350,
      "Ġversions": 7351,
      "Ġbreaks": 7352,
      "Ġimplemented": 7353,
      "Ġmeaningful": 7354,
      "Ġcombine": 7355,
      "ÑİÑīÐ¸Ð¹": 7356,
      "Ġdigest": 7357,
      "Ġaccurately": 7358,
      "Ġabsol": 7359,
      "mediate": 7360,
      "Ġincorrect": 7361,
      "Ġfluid": 7362,
      "Ð¸Ð±Ð¾Ð»ÐµÐµ": 7363,
      "Ġfixed": 7364,
      "Ġlifest": 7365,
      "Ġfruits": 7366,
      "related": 7367,
      "ĠÐ·Ð°Ð²Ð¸ÑģÐ¸Ð¼Ð¾ÑģÑĤÐ¸": 7368,
      "ambda": 7369,
      "ĠÑħÐ°ÑĢÐ°Ðº": 7370,
      "ĠÐ¸Ð½ÑģÑĤÑĢÑĥÐ¼ÐµÐ½": 7371,
      "Ġdiagn": 7372,
      "Ġobstacles": 7373,
      "Ġcomparison": 7374,
      "Ġgalaxies": 7375,
      "ĠÐłÐ¾ÑģÑģÐ¸Ð¸": 7376,
      "Ġcomprehensive": 7377,
      "88": 7378,
      "></": 7379,
      "]:": 7380,
      "css": 7381,
      "ipl": 7382,
      "£Ì": 7383,
      "ÃŃ": 7384,
      "Ġic": 7385,
      "inations": 7386,
      "onds": 7387,
      "Ġfasc": 7388,
      "Ġpygame": 7389,
      "Ġmir": 7390,
      "Ġbub": 7391,
      "Ġdf": 7392,
      "Ġdro": 7393,
      "Ġdrop": 7394,
      "Ġnational": 7395,
      "ellect": 7396,
      "oles": 7397,
      "ĠÑģÐ»Ð¸": 7398,
      "Ġalcohol": 7399,
      "Ġvit": 7400,
      "ema": 7401,
      "ighb": 7402,
      "ĠPot": 7403,
      "Ġlettuce": 7404,
      "ĠMet": 7405,
      "ĠLo": 7406,
      "Ð¾Ð¶Ð½Ð¾": 7407,
      "Ð»ÑĮÐ½ÑĭÐµ": 7408,
      "ĠÑĥÐ´Ð°": 7409,
      "Ġmanaging": 7410,
      "Ð²Ð°Ð½Ð¸Ñı": 7411,
      "Ġacqu": 7412,
      "ÑģÑĤÐ²Ð¸Ðµ": 7413,
      "curs": 7414,
      "creen": 7415,
      "odynam": 7416,
      "ĠChar": 7417,
      "ÐŁÐ¾ÑĩÐµÐ¼Ñĥ": 7418,
      "ĠÐ¼Ð°ÑĤÐµ": 7419,
      "ĠÐ¾ÑģÐ½Ð¾Ð²Ð°": 7420,
      "ÑİÑīÐ¸Ñħ": 7421,
      "ĠSecurity": 7422,
      "ĠÑħÐ¾ÑĤÐµ": 7423,
      "ĠÐºÑĥÑĢ": 7424,
      "Ġcriteria": 7425,
      "Ġintroduction": 7426,
      "ĠÐ¸Ð½ÑĤÐµÐ»": 7427,
      "ĠBlack": 7428,
      "Ġinspiration": 7429,
      "ÑģÑĤÐ°Ð²Ð»ÑıÐµÑĤ": 7430,
      "Ġevolved": 7431,
      "Ġstruggle": 7432,
      "ĠÐ´ÑĥÐ¼Ð°": 7433,
      "Ġemergency": 7434,
      "Ġshapes": 7435,
      "Ġhabit": 7436,
      "Ġrestrictions": 7437,
      "label": 7438,
      "Ġacademic": 7439,
      "04": 7440,
      "Day": 7441,
      "IL": 7442,
      "bject": 7443,
      "fd": 7444,
      "node": 7445,
      "Ġcand": 7446,
      "ÐµÐ²": 7447,
      "ndarray": 7448,
      "Ġwolf": 7449,
      "Ġfab": 7450,
      "Ġpun": 7451,
      "Ġtokens": 7452,
      "ÑĢÐµÑĤÑĮ": 7453,
      "edy": 7454,
      "username": 7455,
      "Ġreached": 7456,
      "img": 7457,
      "Ġgarbage": 7458,
      "ÑıÐ´": 7459,
      "rab": 7460,
      "Ð´ÐµÐ½Ð¸Ñı": 7461,
      "ĠÑģÐºÐ¾": 7462,
      "ĠCT": 7463,
      "ĠCy": 7464,
      "Ġhes": 7465,
      "ĠÐºÑĤÐ¾": 7466,
      "Ġnearb": 7467,
      "ĠÐ¼Ð¾Ð¼": 7468,
      "ĠPHP": 7469,
      "ptember": 7470,
      "Ð³Ð»Ñı": 7471,
      "ĠGr": 7472,
      "ĠGPIO": 7473,
      "Ġadopt": 7474,
      "ÑĢÐ¾ÑĤ": 7475,
      "Ġsocket": 7476,
      "Ġmanager": 7477,
      "apers": 7478,
      "apple": 7479,
      "Ġarrow": 7480,
      "Ġpretty": 7481,
      "loat": 7482,
      "Ġdesp": 7483,
      "ftware": 7484,
      "Ġinterval": 7485,
      "Ġserving": 7486,
      "Ġcolon": 7487,
      "Ġphase": 7488,
      "()`": 7489,
      "ĠStable": 7490,
      "Ð·Ð°ÑĨÐ¸Ñı": 7491,
      "entials": 7492,
      "ÑĩÐµÑģÐºÐ°Ñı": 7493,
      "commod": 7494,
      "Ð¾ÐµÐ³Ð¾": 7495,
      "forward": 7496,
      "ĠÐ¼Ð¸Ð½ÑĥÑĤ": 7497,
      "Ġbreaking": 7498,
      "Ġdriving": 7499,
      "Ġcareful": 7500,
      "Ġinteraction": 7501,
      "Ġbeginner": 7502,
      "Ġteams": 7503,
      "ĠÐ¿ÑĢÐ¾Ð³ÑĢÐ°Ð¼Ð¼Ð¸": 7504,
      "Ġdestroy": 7505,
      "Ġcompetition": 7506,
      "Ġdistributions": 7507,
      "ĠÐ¸ÑģÑĤÐ¾ÑĢÐ¸": 7508,
      "ygen": 7509,
      "Ġappearance": 7510,
      "ĠÐ¸Ð½ÑĦÐ¾ÑĢÐ¼Ð°ÑĨÐ¸Ð¸": 7511,
      "ĠÐ²ÐºÐ»ÑİÑĩÐ°Ñı": 7512,
      "Ġbehaviors": 7513,
      "Ġgradient": 7514,
      "Element": 7515,
      "ĠÐ´Ð¾Ð¿Ð¾Ð»Ð½Ð¸": 7516,
      "powered": 7517,
      "Ġnearby": 7518,
      ")}": 7519,
      "38": 7520,
      "96": 7521,
      "Line": 7522,
      "OL": 7523,
      "Sorry": 7524,
      "Te": 7525,
      "URL": 7526,
      "dl": 7527,
      "tical": 7528,
      "then": 7529,
      "});": 7530,
      "ĩÌ": 7531,
      "Ġaid": 7532,
      "Ð°Ð¶": 7533,
      "Ð¸Ð»Ð¸": 7534,
      "Ġlas": 7535,
      "omial": 7536,
      "Ġnginx": 7537,
      "eter": 7538,
      "igen": 7539,
      "Ġonion": 7540,
      "ÑĩÐµÐ¼": 7541,
      "ayer": 7542,
      "ĠAR": 7543,
      "Ġexcess": 7544,
      "anted": 7545,
      "ÑĢÐµÐ²": 7546,
      "ections": 7547,
      "Ġsharing": 7548,
      "Ġliber": 7549,
      "Ġcontents": 7550,
      "Ġ22": 7551,
      "Ġtea": 7552,
      "ÑģÐºÐ¾Ð»ÑĮ": 7553,
      "angers": 7554,
      "Ġwouldn": 7555,
      "Ġscope": 7556,
      "Ġdataframe": 7557,
      "Ð¾ÐºÐ¾Ð»": 7558,
      "icted": 7559,
      "Ġoffering": 7560,
      "Ġcompleted": 7561,
      "Ġtransact": 7562,
      "Ð´Ð¸Ð¸": 7563,
      "exic": 7564,
      "Ġprovider": 7565,
      "Ġplanets": 7566,
      "Ġlighting": 7567,
      "Ġtyping": 7568,
      "Ġends": 7569,
      "Ġvegan": 7570,
      "Ġvectors": 7571,
      "Ġeconomics": 7572,
      "Ġmoved": 7573,
      "Ġencrypt": 7574,
      "Ġinteractive": 7575,
      "ĠÑıÐ·ÑĭÐºÐ°": 7576,
      "Ġcourses": 7577,
      "ĠÐ¸Ð³ÑĢÐ°": 7578,
      "ĠÐ¸Ð³ÑĢÑĭ": 7579,
      "Ġcritic": 7580,
      "Ġcloser": 7581,
      "Ġweeks": 7582,
      "ĠÐºÐ°Ð¶Ð´ÑĭÐ¹": 7583,
      "Ġgeometry": 7584,
      "ĠÐ´Ð¾Ð»Ð¶Ð½Ñĭ": 7585,
      "Ġdistributed": 7586,
      "Ġinnovative": 7587,
      "Ġsimpler": 7588,
      "ÐµÐ»ÐµÐ½Ð½Ð¾Ð¹": 7589,
      "Ġenemy": 7590,
      "Ġelectrons": 7591,
      "Trans": 7592,
      "ĠDesign": 7593,
      "ĠComputer": 7594,
      "Ġescape": 7595,
      "Ġreinforcement": 7596,
      "Ġteaspoon": 7597,
      "Ð¾Ð·Ð¼Ð¾Ð¶Ð½Ð¾": 7598,
      "Ġlaptop": 7599,
      "Ġillegal": 7600,
      "ÑģÐºÐ¾Ð»ÑĮÐºÑĥ": 7601,
      "IV": 7602,
      "Well": 7603,
      "parent": 7604,
      "ups": 7605,
      "ws": 7606,
      "Ġtension": 7607,
      "heet": 7608,
      "onna": 7609,
      "ato": 7610,
      "Ð°ÑĤ": 7611,
      "Ġwiz": 7612,
      "enn": 7613,
      "Ġboss": 7614,
      "Ġtow": 7615,
      "asion": 7616,
      "ctr": 7617,
      "omal": 7618,
      "Ġnative": 7619,
      "Ġisol": 7620,
      "Ġgit": 7621,
      "ĠIP": 7622,
      "Ġbeans": 7623,
      "ott": 7624,
      "Ġvar": 7625,
      "Ġchron": 7626,
      "ĠMac": 7627,
      "Ð¾Ð³Ñĥ": 7628,
      "ĠEth": 7629,
      "ĠGreat": 7630,
      "ĠLook": 7631,
      "Ġ27": 7632,
      "Ġ28": 7633,
      "Ġcreature": 7634,
      "ÑĤÐ¸Ðµ": 7635,
      "ĠÑĢÐ°ÑģÑģ": 7636,
      "iented": 7637,
      "Ð¾Ð²Ð°Ð½Ð¸Ðµ": 7638,
      "Ð´Ð°ÑĤÑĮ": 7639,
      "Ġapplying": 7640,
      "Ġrelative": 7641,
      "ÑĳÑĢ": 7642,
      "Ġinformed": 7643,
      "ÑĪÐ¸Ðµ": 7644,
      "ĠUnity": 7645,
      "Ġequations": 7646,
      "Ġvisible": 7647,
      "Start": 7648,
      "ĠCanada": 7649,
      "show": 7650,
      "Ġpersonalized": 7651,
      "ĠWho": 7652,
      "ĠÐĺÐ½": 7653,
      "ĠÐĺÐĺ": 7654,
      "ÐŀÐ±": 7655,
      "ĠÑĩÐ°ÑģÑĤÐ¸": 7656,
      "Ð²ÑĭÑħ": 7657,
      "Ġprofession": 7658,
      "Ġbegins": 7659,
      "ĠÑģÐ¾Ð·Ð´Ð°ÑĤÑĮ": 7660,
      "Ġbrother": 7661,
      "Ġgained": 7662,
      "Ġperiods": 7663,
      "ĠÐ¿Ð¾Ð¿ÑĥÐ»ÑıÑĢ": 7664,
      "ĠÐ±ÐµÐ·Ð¾Ð¿Ð°Ñģ": 7665,
      "Ġexplanations": 7666,
      "Ġanalyzing": 7667,
      "Ġcutting": 7668,
      "Ġentirely": 7669,
      "Ġthreads": 7670,
      "frac": 7671,
      "ĠÐ¿ÑĢÐ¾Ð´ÑĥÐº": 7672,
      "Ġtheorem": 7673,
      "Ġchoices": 7674,
      "Ġtrouble": 7675,
      "Ġhunting": 7676,
      "Ġelectronic": 7677,
      "Ġcompatible": 7678,
      "Ġfrequently": 7679,
      "holders": 7680,
      "Ġretrieve": 7681,
      "Ġsummarize": 7682,
      "Ġcircumst": 7683,
      "ĠÐ¸Ð¼ÐµÐ½Ð½Ð¾": 7684,
      "ĠAustral": 7685,
      "Verse": 7686,
      "([": 7687,
      "37": 7688,
      "According": 7689,
      "Paddle": 7690,
      "WIDTH": 7691,
      "chen": 7692,
      "fit": 7693,
      "Í®": 7694,
      "Ġ```": 7695,
      "Ġsand": 7696,
      "Ð¸Ðº": 7697,
      "Ġpul": 7698,
      "Ġpure": 7699,
      "Ð½ÐµÐ½Ð¸Ñı": 7700,
      "Ġlon": 7701,
      "Ġlen": 7702,
      "Ġnodes": 7703,
      "ÑĥÐ¿": 7704,
      "ÑıÑī": 7705,
      "ĠIdent": 7706,
      "rays": 7707,
      "Ġstage": 7708,
      "Ġconve": 7709,
      "ĠÑģÐµÑĤÐ¸": 7710,
      "ĠAvoid": 7711,
      "plays": 7712,
      "Ġmeets": 7713,
      "Ġround": 7714,
      "ĠMus": 7715,
      "ĠMain": 7716,
      "ĠWill": 7717,
      "ĠBen": 7718,
      "ĠBoth": 7719,
      "ĠÐ½Ð°Ð²Ñĭ": 7720,
      "agine": 7721,
      "Ġresistance": 7722,
      "Ġunknown": 7723,
      "ĠOf": 7724,
      "ĠÑĥÐ»ÑĥÑĩ": 7725,
      "Ġscan": 7726,
      "Ð»Ð°Ð½": 7727,
      "Ð²Ð°ÑİÑĤ": 7728,
      "Ð²Ð°Ð¹ÑĤÐµ": 7729,
      "Ġprepar": 7730,
      "Ġdisk": 7731,
      "ÑĢÑĥÑİ": 7732,
      "Ġdesire": 7733,
      "Ġspin": 7734,
      "Ġprices": 7735,
      "Ð²Ð¸Ð´": 7736,
      "Ġfinds": 7737,
      "Ġcoverage": 7738,
      "Ġexposure": 7739,
      "Ġaccel": 7740,
      "ĠÐŁÐ¾ÑĤ": 7741,
      "Ð´ÑĥÐµÑĤ": 7742,
      "Ġincreases": 7743,
      "Ð¸ÑģÐ°ÑĤÑĮ": 7744,
      "Ġshell": 7745,
      "Ġkeeping": 7746,
      "Ġlesson": 7747,
      "Ġsignificantly": 7748,
      "Ġimplementing": 7749,
      "Ġengineer": 7750,
      "Ġprotected": 7751,
      "Ġdocuments": 7752,
      "Ġtemperatures": 7753,
      "Ġpackages": 7754,
      "Ġforeign": 7755,
      "ĠÐ¸Ð¼ÐµÑİÑĤ": 7756,
      "Ġobserved": 7757,
      "ĠÐ¾Ð±ÑĬÑıÑģ": 7758,
      "Ġtransformer": 7759,
      "Ġexciting": 7760,
      "Ġdrawing": 7761,
      "ĠÐ§ÑĤÐ¾": 7762,
      "ĠÐ¿ÐµÑĢÐµÐ´": 7763,
      "ĠÐ¸Ð½ÑĦÐ¾ÑĢÐ¼Ð°ÑĨÐ¸Ñİ": 7764,
      "Ġproteins": 7765,
      "Ġmanipulate": 7766,
      "ĠÐ¢Ð°ÐºÐ¶Ðµ": 7767,
      "ĠÐ¿Ð¾Ð»Ð¸ÑĤÐ¸ÑĩÐµÑģÐº": 7768,
      "Ġfingers": 7769,
      "Ġsegment": 7770,
      "Ġscenario": 7771,
      "Ġresolve": 7772,
      "ĠÑįÐ»ÐµÐºÑĤÑĢÐ¾Ð½": 7773,
      "Ġcouple": 7774,
      "Ġscholars": 7775,
      "ellectual": 7776,
      "*,": 7777,
      "94": 7778,
      "Ar": 7779,
      "Best": 7780,
      "Out": 7781,
      "Would": 7782,
      "join": 7783,
      "rating": 7784,
      "range": 7785,
      "¥Ì": 7786,
      "¦Ì": 7787,
      "Ġsad": 7788,
      "Ġsac": 7789,
      "atus": 7790,
      "error": 7791,
      "itors": 7792,
      "Ġocean": 7793,
      "roat": 7794,
      "Ġhous": 7795,
      "Ġhob": 7796,
      "Ġhtml": 7797,
      "ÑıÐ½": 7798,
      "ĠII": 7799,
      "ota": 7800,
      "ĠÐ¿ÑģÐ¸": 7801,
      "Ġongoing": 7802,
      "ÑģÑĤÑĭ": 7803,
      "ĠAg": 7804,
      "ĠÐºÐ¾Ð»": 7805,
      "Ġvs": 7806,
      "email": 7807,
      "Ġsudd": 7808,
      "ĠHol": 7809,
      "udy": 7810,
      "ĠEpic": 7811,
      "Ġadult": 7812,
      "ĠLike": 7813,
      "Ġalloc": 7814,
      "ĠÑĢÐ°Ð±Ð¾": 7815,
      "Ġprep": 7816,
      "Ġperhaps": 7817,
      "Ġintersection": 7818,
      "Ġsimulate": 7819,
      "ÑģÐ¿Ð¾Ð»ÑĮÐ·": 7820,
      "ÑĦÐµÑĢ": 7821,
      "Ġpersist": 7822,
      "Ġmostly": 7823,
      "ĠVR": 7824,
      "ĠViet": 7825,
      "Ġmatches": 7826,
      "Ġcalories": 7827,
      "Ġlisted": 7828,
      "ĠÑĢÐµÑĨÐµÐ¿": 7829,
      "Ġtexture": 7830,
      "Ġminor": 7831,
      "Ġfeels": 7832,
      "Ġpursu": 7833,
      "ĠYes": 7834,
      "ĠÐºÐ¾Ð¼Ð¼Ñĥ": 7835,
      "Ð°ÑĢÑĢÐ¸": 7836,
      "ĠAsia": 7837,
      "score": 7838,
      "Ġfriendly": 7839,
      "ĠÐ¼Ð¸ÑĢ": 7840,
      "Ġorganized": 7841,
      "points": 7842,
      "ÑģÐºÐ°Ñı": 7843,
      "Ġspeeds": 7844,
      "ÑģÑĤÐ²ÐµÐ½Ð½ÑĭÐ¹": 7845,
      "Ġrepresenting": 7846,
      "ĠÑıÐ·ÑĭÐºÐ¾Ð²": 7847,
      "Ġoptimal": 7848,
      "Ġvolt": 7849,
      "azon": 7850,
      "Ġhappened": 7851,
      "Ġfigures": 7852,
      "ipping": 7853,
      "Ġturning": 7854,
      "Ġkilogram": 7855,
      "warf": 7856,
      "Ġfinger": 7857,
      "ĠÐ¿Ð¾Ð»ÑĥÑĩÐ¸ÑĤÑĮ": 7858,
      "ĠÐ±ÐµÑģÐ¿": 7859,
      "Ġtutorials": 7860,
      "Ġweapons": 7861,
      "Ġcooperation": 7862,
      "Ġemissions": 7863,
      "Ġstraight": 7864,
      "At": 7865,
      "SQL": 7866,
      "View": 7867,
      "WS": 7868,
      "cal": 7869,
      "gener": 7870,
      "padding": 7871,
      "sm": 7872,
      "under": 7873,
      "ļÌ": 7874,
      "inst": 7875,
      "Ġcovered": 7876,
      "Ġcategor": 7877,
      "itoring": 7878,
      "Ġpull": 7879,
      "Ġolive": 7880,
      "Ġdra": 7881,
      "Ġlinks": 7882,
      "Ġrewrite": 7883,
      "ÑĭÑĤ": 7884,
      "Ġgave": 7885,
      "stream": 7886,
      "ĠÐ¿Ð¾Ð±": 7887,
      "oder": 7888,
      "Ġexists": 7889,
      "rior": 7890,
      "eren": 7891,
      "outube": 7892,
      "pling": 7893,
      "ĠPart": 7894,
      "Ġchrom": 7895,
      "ĠHit": 7896,
      "ĠHung": 7897,
      "Ð³Ð°Ð½": 7898,
      "ĠEd": 7899,
      "ĠÐ½Ð°Ð¸Ð±Ð¾Ð»ÐµÐµ": 7900,
      "ĠLanguage": 7901,
      "Ġclothing": 7902,
      "Ġjud": 7903,
      "Ġprepare": 7904,
      "ords": 7905,
      "ĠJew": 7906,
      "Ġoverl": 7907,
      "Ġspent": 7908,
      "ĠÐ°Ð½": 7909,
      "ĠÐºÐ¾ÑĤÐ¾ÑĢÐ¾Ð¹": 7910,
      "ĠÑģÐ²Ð¾Ð±": 7911,
      "Ġ[âĻ": 7912,
      "Ġsubmit": 7913,
      "Ġdecided": 7914,
      "Ġ64": 7915,
      "Ġconfident": 7916,
      "Ġpatient": 7917,
      "Ġcarro": 7918,
      "ynomial": 7919,
      "Ġinstallation": 7920,
      "Ġintegration": 7921,
      "ategory": 7922,
      "ÑģÑĤÐ²ÐµÐ½Ð½Ð¾Ð³Ð¾": 7923,
      "ĠÑĨÐµÐ½ÑĤ": 7924,
      "Ġdigit": 7925,
      "ameter": 7926,
      "Ġfloor": 7927,
      "Ð¿ÐµÑĢÐ°": 7928,
      "Ġminimize": 7929,
      "ĠÑĢÐ°ÑģÑģÐºÐ°": 7930,
      "ĠÐ¸Ð¼ÐµÑĤÑĮ": 7931,
      "Ġfighting": 7932,
      "Ġchatbot": 7933,
      "ENT": 7934,
      "Ġsufficient": 7935,
      "ĠÐ´Ð¾Ð±Ð°": 7936,
      "Ġmenu": 7937,
      "Ġsegments": 7938,
      "ĠÐ²ÐºÑĥÑģ": 7939,
      "ĠCalculate": 7940,
      "ĠÑĥÑģÐ»Ð¾Ð²Ð¸": 7941,
      "ĠÐ´Ð¾ÑģÑĤÐ°ÑĤÐ¾ÑĩÐ½Ð¾": 7942,
      "dimensional": 7943,
      "ĠÑģÐ¾ÑĤÑĢÑĥÐ´": 7944,
      "Ġlifestyle": 7945,
      "Ġdespite": 7946,
      "77": 7947,
      "Am": 7948,
      "Key": 7949,
      "Text": 7950,
      "aid": 7951,
      "dat": 7952,
      "house": 7953,
      "lier": 7954,
      "mp": 7955,
      "txt": 7956,
      "wik": 7957,
      "¤Ì": 7958,
      "łÌ": 7959,
      "Ġahead": 7960,
      "Ġwis": 7961,
      "alysis": 7962,
      "lets": 7963,
      "Ġinject": 7964,
      "iler": 7965,
      "images": 7966,
      "olves": 7967,
      "ĠTuring": 7968,
      "ifier": 7969,
      "ĠÑģÐµÑĤ": 7970,
      "Ġalgebra": 7971,
      "ĠÐ¾ÑĪÐ¸": 7972,
      "Ġheating": 7973,
      "ĠÐ¼ÐµÐ½ÑĮ": 7974,
      "ĠPut": 7975,
      "ĠMexic": 7976,
      "ĠEas": 7977,
      "Ġweigh": 7978,
      "Ġadop": 7979,
      "close": 7980,
      "ĠÑĥÑĤ": 7981,
      "ÑīÐµÐ½Ð¸Ðµ": 7982,
      "Ð»Ð°Ð³Ð°": 7983,
      "Ð¾Ð±ÑīÐµ": 7984,
      "ĠUI": 7985,
      "Ġperce": 7986,
      "ÑģÑĤÐ²Ð¾Ð¼": 7987,
      "ÑģÑĤÐ²Ð¾Ð²Ð°ÑĤÑĮ": 7988,
      "ĠÐ¿ÑĢÐ¸Ð½Ð¸Ð¼Ð°": 7989,
      "Ġwants": 7990,
      "ysics": 7991,
      "ÑĩÐ°Ñģ": 7992,
      "Ġexperiments": 7993,
      "crete": 7994,
      "ĠÐºÐ¾ÑĤÐ¾ÑĢÐ¾Ðµ": 7995,
      "ĠÑĢÐ°Ð·Ð½ÑĭÑħ": 7996,
      "Ġremote": 7997,
      "ĠChange": 7998,
      "Ġhandling": 7999,
      "Ð¼ÐµÐ½ÑĤÐ°": 8000,
      "ĠRevolution": 8001,
      "Ġblog": 8002,
      "ĠÐŀÑĤ": 8003,
      "Ġreduced": 8004,
      "ĠProgram": 8005,
      "ĠÐ¿Ð¾Ð¼Ð¾Ð³": 8006,
      "ĠÐ¼Ð¸Ðº": 8007,
      "ÑĤÑĥÑĢ": 8008,
      "Ġwidesp": 8009,
      "Ġlogical": 8010,
      "Ġscientist": 8011,
      "Ġbeneficial": 8012,
      "Ġcontributed": 8013,
      "ometers": 8014,
      "ĠSeptember": 8015,
      "Ġtried": 8016,
      "ERT": 8017,
      "Ġmechanical": 8018,
      "ĠEns": 8019,
      "Ġethics": 8020,
      "Ġalternatives": 8021,
      "Ġminimal": 8022,
      "Ġattempts": 8023,
      "Ġrows": 8024,
      "Ġdiseases": 8025,
      "HEIGHT": 8026,
      "Ġliterature": 8027,
      "Ġcollaboration": 8028,
      "ĠÐ°Ð»Ð³Ð¾ÑĢÐ¸ÑĤÐ¼": 8029,
      "eorge": 8030,
      "Ġopinions": 8031,
      "Ġcognitive": 8032,
      "Ġtitles": 8033,
      "Ġmysterious": 8034,
      "Ġsudden": 8035,
      "Ġwidespread": 8036,
      "\"]": 8037,
      "Frame": 8038,
      "awn": 8039,
      "ban": 8040,
      "bru": 8041,
      "github": 8042,
      "Íį": 8043,
      "ŃÌ": 8044,
      "Ġaugment": 8045,
      "atin": 8046,
      "orough": 8047,
      "Ġwomen": 8048,
      "Ġpix": 8049,
      "Ġbath": 8050,
      "Ġrect": 8051,
      "ĠÐ¿Ð¸ÑĤÐ°": 8052,
      "ÑĩÐ½ÑĭÐ¹": 8053,
      "Ġstraw": 8054,
      "oded": 8055,
      "Ġconqu": 8056,
      "ĠÑģÐ½Ð°": 8057,
      "Ġalthough": 8058,
      "query": 8059,
      "ĠSk": 8060,
      "orem": 8061,
      "erent": 8062,
      "Ġneighb": 8063,
      "ÑĤÐµÐº": 8064,
      "Ġsevere": 8065,
      "Ġnotable": 8066,
      "active": 8067,
      "ĠFin": 8068,
      "ĠRome": 8069,
      "Ġtheme": 8070,
      "Ġconsists": 8071,
      "ÐµÐ¹ÑĩÐ°Ñģ": 8072,
      "Ġcurl": 8073,
      "Ġdefend": 8074,
      "Ġcorner": 8075,
      "Ġmeditation": 8076,
      "Ġextensive": 8077,
      "ismic": 8078,
      "ĠÐ¼Ð°ÑĪÐ¸Ð½": 8079,
      "ĠÐ¿ÑĢÐµÐ´Ð¼ÐµÑĤ": 8080,
      "rencies": 8081,
      "Ġharder": 8082,
      "Ġmeters": 8083,
      "Ġmetrics": 8084,
      "ĠÐ¼Ð¸ÑĢÐµ": 8085,
      "ÑĪÐ°Ñı": 8086,
      "ÑıÑĤÑģÑı": 8087,
      "ĠWhy": 8088,
      "Ġstret": 8089,
      "ĠComp": 8090,
      "ĠÐĶÐ°": 8091,
      "Ġsuccessfully": 8092,
      "Ġsunlight": 8093,
      "Ġtrip": 8094,
      "Ġmechanisms": 8095,
      "ĠSpace": 8096,
      "Ġreasoning": 8097,
      "roller": 8098,
      "Ġregardless": 8099,
      "Ġprinciple": 8100,
      "Ġreferring": 8101,
      "Ġinfinity": 8102,
      "Ġdimension": 8103,
      "Ġguidelines": 8104,
      "Additionally": 8105,
      "Ġextreme": 8106,
      "Ġpromoting": 8107,
      "ĠÐ¼Ð¾Ð´ÐµÐ»Ð¸": 8108,
      "ĠInternational": 8109,
      "Ġinterpretation": 8110,
      "Ġscenarios": 8111,
      "Ġsatisf": 8112,
      "Ġdialogue": 8113,
      "Ġcalendar": 8114,
      "Ġabstract": 8115,
      "ELE": 8116,
      "MD": 8117,
      "Message": 8118,
      "NN": 8119,
      "gl": 8120,
      "hi": 8121,
      "ÏĢ": 8122,
      "ĸÌ": 8123,
      "Ð¾ÑĦ": 8124,
      "Ġsession": 8125,
      "Ġpenc": 8126,
      "Ġod": 8127,
      "Ġmerg": 8128,
      "Ġdot": 8129,
      "Ġduck": 8130,
      "ica": 8131,
      "rovers": 8132,
      "Ġreput": 8133,
      "idate": 8134,
      "ĠÐ¿Ð¾Ð³": 8135,
      "ĠÐ¿ÑĭÑĤÐ°": 8136,
      "ifies": 8137,
      "ĠÐ²Ð¾Ð´Ñĭ": 8138,
      "uns": 8139,
      "peare": 8140,
      "Ġsuited": 8141,
      "Ð¾Ð»Ð¾": 8142,
      "ĠMarch": 8143,
      "ĠDespite": 8144,
      "ĠElect": 8145,
      "ocial": 8146,
      "duino": 8147,
      "ĠUltimately": 8148,
      "Ġcouldn": 8149,
      "Ġserved": 8150,
      "Ġpartner": 8151,
      "Ġinstant": 8152,
      "ĠStar": 8153,
      "Ġchest": 8154,
      "ĠÑĢÐµÐ°Ð»Ð¸": 8155,
      "Ġrecently": 8156,
      "Ġdesigns": 8157,
      "Ġconfusion": 8158,
      "Ġrealistic": 8159,
      "Ð²ÐµÑĩÐ°": 8160,
      "Ġimprovement": 8161,
      "ĠProcess": 8162,
      "ĠYork": 8163,
      "ĠÐ¾Ð¿Ð°Ñģ": 8164,
      "ĠAddress": 8165,
      "Ġtelling": 8166,
      "Ġsignificance": 8167,
      "Ġsites": 8168,
      "Ġachieving": 8169,
      "Ġcombat": 8170,
      "ÑĦÐ¸ÐºÐ°": 8171,
      "Ġgrid": 8172,
      "Ġstatistical": 8173,
      "ĠNewton": 8174,
      "ĠInstall": 8175,
      "ĠÐ¿ÐµÑĢÑģ": 8176,
      "Ġframeworks": 8177,
      "Ġdreams": 8178,
      "Ġchannels": 8179,
      "Ð»Ð¸ÑĩÐ¸Ðµ": 8180,
      "Ġremoving": 8181,
      "Ġmythology": 8182,
      "Ġmistake": 8183,
      "Ġexecuted": 8184,
      "ĠÐ¿Ð¾ÑĩÐµÐ¼Ñĥ": 8185,
      "ĠÑĩÐµÐ³Ð¾": 8186,
      "Ġrestaurant": 8187,
      "burg": 8188,
      "urthermore": 8189,
      "Ġcrisis": 8190,
      "36": 8191,
      "54": 8192,
      "62": 8193,
      "><": 8194,
      "ION": 8195,
      "ULL": 8196,
      "det": 8197,
      "math": 8198,
      "ober": 8199,
      "tion": 8200,
      "uary": 8201,
      "Íħ": 8202,
      "ĪÌ": 8203,
      "Ġtiss": 8204,
      "hem": 8205,
      "Ġwave": 8206,
      "Ġfusion": 8207,
      "Ġbag": 8208,
      "Ġandroid": 8209,
      "Ð½ÑĨÐ¸": 8210,
      "left": 8211,
      "arant": 8212,
      "Ġthorough": 8213,
      "Ġnone": 8214,
      "vector": 8215,
      "ÑĥÐ¼Ð°": 8216,
      "ÑģÑĤÐ¾Ð²": 8217,
      "ĠÑģÐºÐ°": 8218,
      "Ġcomments": 8219,
      "antum": 8220,
      "Ġheap": 8221,
      "ĠÐ¼Ð°Ðº": 8222,
      "mental": 8223,
      "oses": 8224,
      "ĠÐ´Ð²Ð°": 8225,
      "ĠHong": 8226,
      "Ġru": 8227,
      "ĠMX": 8228,
      "ĠMost": 8229,
      "Ġshift": 8230,
      "Ġupload": 8231,
      "ĠEvery": 8232,
      "ĠFed": 8233,
      "ocaly": 8234,
      "Ġadvert": 8235,
      "Ġcontrovers": 8236,
      "Ġ21": 8237,
      "ĠÐ½ÐµÐ³Ð¾": 8238,
      "Ġju": 8239,
      "ĠNether": 8240,
      "Ð²Ð°ÐµÑĤÑģÑı": 8241,
      "ressed": 8242,
      "ĠInc": 8243,
      "conf": 8244,
      "container": 8245,
      "ĠÐ°Ð½Ð³": 8246,
      "ĠÐ¾ÑĤÐ»Ð¸ÑĩÐ°": 8247,
      "Ġunderstood": 8248,
      "Ġadds": 8249,
      "Ġpositions": 8250,
      "ĠÐ¿ÑĢÐ¾ÑĦÐµ": 8251,
      "ĠÐºÐ¾ÑĤÐ¾ÑĢÐ¾Ð¼": 8252,
      "Ġremind": 8253,
      "Ġbackup": 8254,
      "Ġsubt": 8255,
      "cules": 8256,
      "ĠÑģÑĤÐ¾Ð»": 8257,
      "Ġdiscord": 8258,
      "Ġconsideration": 8259,
      "Ġdiversity": 8260,
      "Ġelected": 8261,
      "Ġtempor": 8262,
      "Ġtemplate": 8263,
      "Ġmovements": 8264,
      "Ġaircraft": 8265,
      "ĠÐ·Ð½Ð°Ð½Ð¸Ñı": 8266,
      "Ġnecessarily": 8267,
      "Ġpolitics": 8268,
      "Ġinvesting": 8269,
      "Ġhyper": 8270,
      "ĠÑħÐ¾ÑĢÐ¾": 8271,
      "Ġradar": 8272,
      "trans": 8273,
      "ĠÐĹÐµÐ¼": 8274,
      "minist": 8275,
      "Ġhorizon": 8276,
      "Ġparents": 8277,
      "Ġdemonstrate": 8278,
      "Ġweaknesses": 8279,
      "ĠTransform": 8280,
      "Ġfootball": 8281,
      "Ġtransportation": 8282,
      "return": 8283,
      "Ġspells": 8284,
      "ĠÐ¿ÑĢÐ¾Ð±Ð»ÐµÐ¼Ñĭ": 8285,
      "ĠÐ²Ð¼ÐµÑģÑĤÐµ": 8286,
      "elihood": 8287,
      "Ġoxygen": 8288,
      "ĠReturn": 8289,
      "Ġdisadvantages": 8290,
      "Ġscratch": 8291,
      "ĠÐ¾ÑĪÐ¸Ð±": 8292,
      ")?": 8293,
      "44": 8294,
      "95": 8295,
      "Mod": 8296,
      "Take": 8297,
      "bin": 8298,
      "dri": 8299,
      "grade": 8300,
      "©Ì": 8301,
      "Í¬": 8302,
      "Ġtorch": 8303,
      "iner": 8304,
      "heim": 8305,
      "Ġsaving": 8306,
      "Ġce": 8307,
      "ÑĤÐ°Ðº": 8308,
      "Ġment": 8309,
      "Ġmount": 8310,
      "ÑĢÐº": 8311,
      "Ġlose": 8312,
      "usiness": 8313,
      "ching": 8314,
      "ĠÐ¿Ð°Ðº": 8315,
      "ĠÐ¿Ð»Ð¾": 8316,
      "umes": 8317,
      "antine": 8318,
      "Ġintent": 8319,
      "ĠForm": 8320,
      "ĠRaspberry": 8321,
      "ĠLim": 8322,
      "ĠÑĤÐ¾Ð¶Ðµ": 8323,
      "ĠÑĤÐ²Ð¾": 8324,
      "Ġresume": 8325,
      "Ġcreators": 8326,
      "Ð²Ð°ÑĤÑĮÑģÑı": 8327,
      "acher": 8328,
      "ĠÑįÑĤÐ°": 8329,
      "ĠIts": 8330,
      "Ġprem": 8331,
      "ĠIncre": 8332,
      "ethod": 8333,
      "Ġserves": 8334,
      "ĠÐ¿Ð¾Ñı": 8335,
      "Ġcurious": 8336,
      "Ġcoefficient": 8337,
      "Ġjustice": 8338,
      "Ġ2021": 8339,
      "Ġpolynomial": 8340,
      "Ġartist": 8341,
      "Ġentry": 8342,
      "ĠRec": 8343,
      "ĠĠĠĠĠĠĠĠĠĠĠĠĠĠĠĠĠĠĠĠĠĠ": 8344,
      "ÑĢÐ¾Ð²Ð°Ð½Ð¸Ðµ": 8345,
      "Ġcontrolled": 8346,
      "Therefore": 8347,
      "ÑĤÑĥÑĢÐ°": 8348,
      "ĠArch": 8349,
      "Ġearlier": 8350,
      "Ġindustries": 8351,
      "ĠÑħÐ¾ÑĢÐ¾ÑĪÐ¾": 8352,
      "ĠÐºÑĥÑĢÐ¸": 8353,
      "Ġbalanced": 8354,
      "Ġintroduce": 8355,
      "ĠÐ·Ð°Ð´Ð°ÑĩÐ¸": 8356,
      "ĠÐ¿ÑĢÐ¾Ð¸Ð·Ð²ÐµÐ´": 8357,
      "Ġconsumers": 8358,
      "ÑģÑĥÑĢ": 8359,
      "Ð¸Ð»Ð¾Ñģ": 8360,
      "Ġbatteries": 8361,
      "Ġvegetable": 8362,
      "Ġultimate": 8363,
      "Ġsuffering": 8364,
      "umbbell": 8365,
      "ĠService": 8366,
      "Ġemphasizes": 8367,
      "ĠJapanese": 8368,
      "ĠÑĤÐµÐ¼Ð¿ÐµÑĢÐ°": 8369,
      "Ġdeliver": 8370,
      "abetes": 8371,
      "ĠÐ¿Ð¾Ð·Ð²Ð¾Ð»ÑıÐµÑĤ": 8372,
      "distances": 8373,
      "Ġcorresponding": 8374,
      "08": 8375,
      "API": 8376,
      "Date": 8377,
      "begin": 8378,
      "eled": 8379,
      "sl": 8380,
      "uk": 8381,
      "¯Ì": 8382,
      "ÍĦ": 8383,
      "ĺÌ": 8384,
      "ľÌ": 8385,
      "heat": 8386,
      "hether": 8387,
      "Ġsoph": 8388,
      "Ð°Ð³": 8389,
      "Ð¸Ñĩ": 8390,
      "itute": 8391,
      "Ġpd": 8392,
      "Ġbaby": 8393,
      "Ð½Ð½ÑĭÐµ": 8394,
      "Ð½ÐµÑĤÐµ": 8395,
      "Ġinner": 8396,
      "Ġthreshold": 8397,
      "Ġlies": 8398,
      "entral": 8399,
      "Ġrenew": 8400,
      "Ġgard": 8401,
      "Ġgiant": 8402,
      "Ġbear": 8403,
      "olds": 8404,
      "Ġstack": 8405,
      "ĠÐ²Ð»Ð¸Ñı": 8406,
      "Ġconven": 8407,
      "see": 8408,
      "Ġvoid": 8409,
      "emark": 8410,
      "osaur": 8411,
      "Ġrates": 8412,
      "ĠMult": 8413,
      "izable": 8414,
      "ĠBI": 8415,
      "Ġplt": 8416,
      "ĠÐ½Ð°Ð·Ð²Ð°": 8417,
      "ĠĠĠĠĠĠĠĠĠĠĠĠĠ": 8418,
      "ĠRPG": 8419,
      "agers": 8420,
      "Ġ23": 8421,
      "Ġquiet": 8422,
      "ĠÐ·ÐµÐ¼": 8423,
      "Ð½Ð°Ð¼": 8424,
      "Ð»Ð°Ð²": 8425,
      "ĠNote": 8426,
      "acle": 8427,
      "ÑĢÑĥÐº": 8428,
      "orders": 8429,
      "Ġemp": 8430,
      "Ð¾ÐºÑĢÐ°": 8431,
      "ĠVirtual": 8432,
      "Ġtechnological": 8433,
      "Ġlaugh": 8434,
      "ĠÐŀÐ½Ð°": 8435,
      "Ð¸ÑģÐ¾Ðº": 8436,
      "ĠÐ¿Ð¾Ð¼Ðµ": 8437,
      "Ġprofit": 8438,
      "Ġcustomize": 8439,
      "ãģĦ": 8440,
      "Ġsearching": 8441,
      "ĠÐ·Ð½Ð°Ñİ": 8442,
      "Ġstands": 8443,
      "ĠÐĶÐ¶": 8444,
      "ÐŀÑĤ": 8445,
      "ĠÐ¢Ðµ": 8446,
      "Ġsentences": 8447,
      "ĠÐ²ÐµÐ´ÑĮ": 8448,
      "Ġ90": 8449,
      "ometric": 8450,
      "ING": 8451,
      "Ġfalling": 8452,
      "Ġpresident": 8453,
      "Ġdatabases": 8454,
      "ĠÑĢÐ¾Ð´": 8455,
      "Ġdivision": 8456,
      "Ġconcerned": 8457,
      "ĠÐºÐ°Ð¶ÐµÑĤÑģÑı": 8458,
      "Ġnuts": 8459,
      "hello": 8460,
      "Ġspeaker": 8461,
      "Enter": 8462,
      "ĠÐ°Ð²ÑĤÐ¾Ð¼": 8463,
      "ĠAND": 8464,
      "Ġbullet": 8465,
      "ĠSteps": 8466,
      "Ġsports": 8467,
      "ugging": 8468,
      "ĠÑģÑĤÐ¾ÑĢÐ¾Ð½Ñĭ": 8469,
      "ĠÑĤÐµÑħÐ½Ð¾Ð»Ð¾Ð³Ð¸": 8470,
      "ÑĢÐ¾ÑģÐ¸ÑĤÑĮ": 8471,
      "Ġdesktop": 8472,
      "ĠGraphQL": 8473,
      "Ġcryst": 8474,
      "ĠKorea": 8475,
      "Ġcircumstances": 8476,
      "47": 8477,
      "AG": 8478,
      "FT": 8479,
      "GL": 8480,
      "Hub": 8481,
      "Set": 8482,
      "average": 8483,
      "bows": 8484,
      "ux": 8485,
      "water": 8486,
      "ydr": 8487,
      "Íĥ": 8488,
      "âĶ": 8489,
      "ĶÌ": 8490,
      "ŁÌ": 8491,
      "Ġtight": 8492,
      "react": 8493,
      "itational": 8494,
      "Ġwat": 8495,
      "anc": 8496,
      "Ġfurn": 8497,
      "ÑĢÐµÐ½Ð¸Ñı": 8498,
      "Ġdru": 8499,
      "Ġhi": 8500,
      "Ġhref": 8501,
      "Ġhttp": 8502,
      "Ġreb": 8503,
      "illet": 8504,
      "child": 8505,
      "chron": 8506,
      "ĠType": 8507,
      "ĠÐ¿Ð°Ð¼": 8508,
      "Ð´ÑĢÐ°": 8509,
      "unar": 8510,
      "ĠÑģÑģÑĭ": 8511,
      "ÑħÐ¾": 8512,
      "ĠÐ¼Ñı": 8513,
      "ĠHouse": 8514,
      "Ġrice": 8515,
      "Ġseven": 8516,
      "ÑĢÐ¸ÑĤÐµ": 8517,
      "ÑĪÐµÐ½": 8518,
      "ours": 8519,
      "ĠWell": 8520,
      "ĠBron": 8521,
      "Ġplaced": 8522,
      "ĠÐ½Ð°Ð¼": 8523,
      "ĠGold": 8524,
      "Ð½Ð°Ð¼Ð¸": 8525,
      "ĠÑĥÐ²ÐµÑĢ": 8526,
      "Ġaccommod": 8527,
      "ÐºÐ°Ð¼": 8528,
      "ĠÐ»Ñĥ": 8529,
      "Ġoverfitting": 8530,
      "Ġmodeling": 8531,
      "ĠÐ³ÑĢÑĥÐ¿": 8532,
      "ÑģÑĤÐ¸ÑĤÑĮ": 8533,
      "Ġindeed": 8534,
      "Ġexplicit": 8535,
      "Ġmatplotlib": 8536,
      "Ġadvoc": 8537,
      "plicated": 8538,
      "Ġpossibility": 8539,
      "Ġpossibilities": 8540,
      "Ġago": 8541,
      "ÑĤÐµÐ»ÑĮÐ½Ð¾Ð³Ð¾": 8542,
      "Ġlightning": 8543,
      "ernel": 8544,
      "ĠÐ¿Ð¾Ð»Ð½Ð¾ÑģÑĤÑĮÑİ": 8545,
      "ĠUnreal": 8546,
      "ÐŁÐ¾": 8547,
      "ĠÐ¿ÑĢÐµÐ´Ð¿Ð¾Ð»": 8548,
      "akespeare": 8549,
      "Ġfocusing": 8550,
      "Ġlikelihood": 8551,
      "Ġbasics": 8552,
      "ĠÐ²Ð¾Ð·Ð´Ñĥ": 8553,
      "ĠShould": 8554,
      "ĠArduino": 8555,
      "Ð²ÑĭÐµ": 8556,
      "ĠQue": 8557,
      "Ġtrend": 8558,
      "Ġmiles": 8559,
      "Ġgenetic": 8560,
      "ĠTrue": 8561,
      "Ġpaths": 8562,
      "ĠClick": 8563,
      "Ġsends": 8564,
      "Ġmatching": 8565,
      "ĠÐ½ÐµÐ¾Ð±ÑħÐ¾Ð´Ð¸Ð¼": 8566,
      "Ġgolden": 8567,
      "while": 8568,
      "Ġaccepted": 8569,
      "Ġthreats": 8570,
      "Ġmitigate": 8571,
      "Ġillust": 8572,
      "ĠMinister": 8573,
      "________": 8574,
      "ĠLearn": 8575,
      "model": 8576,
      "Ġsoul": 8577,
      "Ġpleasure": 8578,
      "ĠUpdate": 8579,
      "Ġaggressive": 8580,
      "ĠÐ¿Ð¾Ð¸ÑģÐº": 8581,
      "ĠTechn": 8582,
      "Ġneutral": 8583,
      "ĠÑĥÐ·Ð½Ð°ÑĤÑĮ": 8584,
      "Ingredients": 8585,
      "Ġaccomplish": 8586,
      "Ġliquid": 8587,
      "Ġvoltage": 8588,
      "ĠJewish": 8589,
      "31": 8590,
      "John": 8591,
      "LM": 8592,
      "Torch": 8593,
      "float": 8594,
      "iest": 8595,
      "iance": 8596,
      "lers": 8597,
      "nes": 8598,
      "person": 8599,
      "screen": 8600,
      "uge": 8601,
      "||": 8602,
      "ªÌ": 8603,
      "ÍĮ": 8604,
      "ĨÌ": 8605,
      "ĭÌ": 8606,
      "Ġcere": 8607,
      "oral": 8608,
      "itial": 8609,
      "alan": 8610,
      "ÑĢÑĮ": 8611,
      "Ġhund": 8612,
      "Ġreform": 8613,
      "elp": 8614,
      "Ð²ÑĢÐ¾Ð¿": 8615,
      "Ġonions": 8616,
      "peg": 8617,
      "uming": 8618,
      "ĠSouth": 8619,
      "ÑħÐ¾Ð¶": 8620,
      "erer": 8621,
      "ested": 8622,
      "ĠÐ¼Ð¾Ñī": 8623,
      "ective": 8624,
      "ĠMax": 8625,
      "ĠWork": 8626,
      "ĠBo": 8627,
      "Ġintellectual": 8628,
      "ĠFocus": 8629,
      "ĠRob": 8630,
      "ĠLord": 8631,
      "ulture": 8632,
      "Then": 8633,
      "Ð»ÑĮÐ½ÑĭÑħ": 8634,
      "Ð¾Ð±Ð¸": 8635,
      "jecture": 8636,
      "Ġdisaster": 8637,
      "comfort": 8638,
      "ĠÐ¿Ð¾ÑĤÐµÑĢ": 8639,
      "Ġwhose": 8640,
      "version": 8641,
      "Ġpartial": 8642,
      "Ġexplo": 8643,
      "Ġfolk": 8644,
      "create": 8645,
      "Ġlists": 8646,
      "Ġproducing": 8647,
      "Ġsigns": 8648,
      "Ġowner": 8649,
      "Ġeveryday": 8650,
      "Ġ});": 8651,
      "Ð¸ÑĤÑģÑı": 8652,
      "Ġendless": 8653,
      "ĠÑģÐ¿Ð¸ÑģÐ¾Ðº": 8654,
      "Ġmemor": 8655,
      "Ġconsiderations": 8656,
      "String": 8657,
      "Ġsuggested": 8658,
      "Ġcalculations": 8659,
      "Ġlessons": 8660,
      "ÑĪÐ°Ð¹ÑĤÐµ": 8661,
      "ĠThank": 8662,
      "Ġprints": 8663,
      "Ġencourag": 8664,
      "Provide": 8665,
      "ÐĺÐ·": 8666,
      "Ġmechanism": 8667,
      "Ġmoist": 8668,
      "Ġreasonable": 8669,
      "Ð°ÑģÑģÐºÐ°Ð¶Ð¸": 8670,
      "Ġstatistics": 8671,
      "ĠÑģÐ¸ÑģÑĤÐµÐ¼Ð°": 8672,
      "Ġwaiting": 8673,
      "Ġheavily": 8674,
      "Seismic": 8675,
      "ÐºÐ¾ÑĤÐ¾ÑĢÑĭÐµ": 8676,
      "afe": 8677,
      "Ġevolving": 8678,
      "Ġholid": 8679,
      "ĠÐ¾ÐºÑĢÑĥ": 8680,
      "ĠÐ¿ÑĢÐ¾Ð²ÐµÑĢ": 8681,
      "Ġvulnerabilities": 8682,
      "ĠAmazon": 8683,
      "ĠCompute": 8684,
      "Ġwatching": 8685,
      "Ġsilver": 8686,
      "Ġtomatoes": 8687,
      "Ġrepeated": 8688,
      "Ġkeywords": 8689,
      "Ð¼ÐµÐ½Ð¸ÑĤÑĮ": 8690,
      "ĠPortal": 8691,
      "Ġkitchen": 8692,
      "ĠÐ¶Ð¸Ð²Ð¾ÑĤ": 8693,
      "Ġtunnel": 8694,
      "Ġprepared": 8695,
      "05": 8696,
      "Att": 8697,
      "Bl": 8698,
      "Form": 8699,
      "Python": 8700,
      "Task": 8701,
      "Type": 8702,
      "draw": 8703,
      "git": 8704,
      "group": 8705,
      "iver": 8706,
      "ui": 8707,
      "worth": 8708,
      "ÍĬ": 8709,
      "ÍĽ": 8710,
      "ĠÃ": 8711,
      "Ġtong": 8712,
      "inating": 8713,
      "ÐµÐ»Ñı": 8714,
      "Ġpiano": 8715,
      "Ġmig": 8716,
      "alian": 8717,
      "ÑĢÐ¾Ð´": 8718,
      "ÑĢÐ¾Ð´Ðµ": 8719,
      "Ġdance": 8720,
      "Ġnet": 8721,
      "Ġnose": 8722,
      "Ġgap": 8723,
      "Ġforg": 8724,
      "Ð²ÑĢÐ°": 8725,
      "ĠTO": 8726,
      "Ġstages": 8727,
      "iforn": 8728,
      "ĠÑģÐ¼Ðµ": 8729,
      "ĠASC": 8730,
      "atever": 8731,
      "ĠSur": 8732,
      "Ġdeals": 8733,
      "Ġhearing": 8734,
      "ÑĤÐ¾Ñĩ": 8735,
      "ĠPresident": 8736,
      "Ġring": 8737,
      "Ġlepro": 8738,
      "ĠMer": 8739,
      "ĠDog": 8740,
      "Ġunf": 8741,
      "ĠÐ½ÐµÐ±": 8742,
      "Ġanywhere": 8743,
      "Ġarms": 8744,
      "Ġdisrupt": 8745,
      "Ġspot": 8746,
      "ĠÐ¾ÑĤÐ²ÐµÑĩÐ°": 8747,
      "Ġsettle": 8748,
      "Ġstrict": 8749,
      "ĠÐ¸Ð·ÑĥÑĩ": 8750,
      "ĠString": 8751,
      "ĠKong": 8752,
      "Ġcalm": 8753,
      "Ġcoins": 8754,
      "ĠÑĦÐ¸Ð»Ð¾Ñģ": 8755,
      "Ġdistract": 8756,
      "ĠÑĢÐµÑĪ": 8757,
      "Ġpoly": 8758,
      "Ġbelong": 8759,
      "Ġdecimal": 8760,
      "Ġdiscovery": 8761,
      "ĠÐŀÐ±": 8762,
      "ĠConnect": 8763,
      "ohydr": 8764,
      "Ð¾Ð²ÑĭÐ¼": 8765,
      "ĠÐ½Ð°Ð¿ÑĢÐ°Ð²": 8766,
      "Ġsentient": 8767,
      "ÑĢÐ°Ð·Ñĥ": 8768,
      "Ġpainting": 8769,
      "Ġstronger": 8770,
      "Ġtreasure": 8771,
      "Ġturns": 8772,
      "ĠDoes": 8773,
      "Ġsubjects": 8774,
      "ANT": 8775,
      "Ġputting": 8776,
      "ÐļÐ°ÐºÐ¸Ðµ": 8777,
      "ÑģÑĤÐ²Ð¸Ñı": 8778,
      "Ġreaching": 8779,
      "Ġinterpreted": 8780,
      "Ġtranslation": 8781,
      "Ġreferred": 8782,
      "Ġboost": 8783,
      "break": 8784,
      "Ġgravitational": 8785,
      "ĠÑĢÐ°ÑģÐ¿ÑĢÐ¾ÑģÑĤ": 8786,
      "ĠÐ²Ð°Ð¶Ð½Ð¾": 8787,
      "True": 8788,
      "ĠÑĢÐ°Ð·ÑĢÐ°Ð±Ð¾ÑĤÑĩÐ¸": 8789,
      "Ġdelivery": 8790,
      "ĠÑģÐ¿ÐµÑĨÐ¸Ð°Ð»Ð¸": 8791,
      "ught": 8792,
      "ĠRegular": 8793,
      "Ġsavings": 8794,
      "Ð°Ð²ÑĮÑĤÐµ": 8795,
      "clusive": 8796,
      "Ġpuzzles": 8797,
      "ĠPeople": 8798,
      "ĠÐºÐ¾Ð½ÑĤÑĢ": 8799,
      "sorted": 8800,
      "Ġmanufacture": 8801,
      "ĠÐ²Ð½Ð¸Ð¼Ð°Ð½Ð¸Ðµ": 8802,
      "Ġparadox": 8803,
      "ĠFacebook": 8804,
      "Ġmirror": 8805,
      "ifornia": 8806,
      "ĠASCII": 8807,
      "Ġleprosy": 8808,
      "ohydrates": 8809,
      "AV": 8810,
      "Fi": 8811,
      "Path": 8812,
      "Spe": 8813,
      "Source": 8814,
      "bow": 8815,
      "buck": 8816,
      "cv": 8817,
      "easy": 8818,
      "ii": 8819,
      "linder": 8820,
      "paddle": 8821,
      "tem": 8822,
      "uum": 8823,
      "yt": 8824,
      "oni": 8825,
      "atter": 8826,
      "Ġcoc": 8827,
      "ÐµÐµ": 8828,
      "Ð°Ð³Ð°": 8829,
      "Ġfont": 8830,
      "Ġok": 8831,
      "Ġmic": 8832,
      "ales": 8833,
      "ÑĢÐ¾Ð³Ð¾": 8834,
      "Ġdoll": 8835,
      "Ġrecurs": 8836,
      "Ġnation": 8837,
      "Ġbeings": 8838,
      "otype": 8839,
      "ollow": 8840,
      "Ġanomal": 8841,
      "Ð·ÑĮ": 8842,
      "Ġalive": 8843,
      "ĠÐ¾Ð½Ð¾": 8844,
      "ĠÐºÐ²Ð°": 8845,
      "ĠMad": 8846,
      "ĠMess": 8847,
      "Ġselection": 8848,
      "ĠÐ½Ð°Ð´Ðµ": 8849,
      "ella": 8850,
      "ĠLoad": 8851,
      "ĠÑĤÑĥ": 8852,
      "ĠÑĤÐ²Ð¾ÑĢ": 8853,
      "ĠÐ½ÐµÐ¼": 8854,
      "anged": 8855,
      "Ð²Ð°Ð¹": 8856,
      "Ġoutdo": 8857,
      "Ġarche": 8858,
      "Ġdisplays": 8859,
      "ÑģÑĤÐ²Ñĥ": 8860,
      "ĠÐ²ÑĭÑĢÐ°": 8861,
      "Ġworkers": 8862,
      "Ġpartners": 8863,
      "Ġexploration": 8864,
      "Ġ*/": 8865,
      "Ð·Ð°Ð½": 8866,
      "Ġ400": 8867,
      "Ġ<=": 8868,
      "ÑĩÐµÑģÐºÑĥÑİ": 8869,
      "ĠÑĢÐµÑģÑĥÑĢ": 8870,
      "Ġagree": 8871,
      "ierarch": 8872,
      "Ġcaught": 8873,
      "ÑıÑĤÐ½Ð¾": 8874,
      "ĠÑģÐ²Ð¾Ð¸Ð¼": 8875,
      "Ġinstalling": 8876,
      "Ġtrends": 8877,
      "Ġexplores": 8878,
      "ĠÑģÐ¾Ð²ÑĢÐµÐ¼ÐµÐ½": 8879,
      "ographic": 8880,
      "Ġslower": 8881,
      "ĠÐ½ÐµÑģÐºÐ¾Ð»ÑĮ": 8882,
      "Ġmission": 8883,
      "Ġcommitment": 8884,
      "ĠCalifornia": 8885,
      "steroid": 8886,
      "Ġsnack": 8887,
      "ATE": 8888,
      "Ġnuclear": 8889,
      "Ġinstruments": 8890,
      "steps": 8891,
      "Ġtroubles": 8892,
      "ĠÐ¼Ð½Ð¾Ð³Ð¸Ñħ": 8893,
      "Ġuniversal": 8894,
      "Ġauthentic": 8895,
      "ĠSSD": 8896,
      "Ð²Ð»ÐµÐºÐ°": 8897,
      "ĠÑģÐ¾Ð´ÐµÑĢÐ¶Ð°": 8898,
      "Ġsamples": 8899,
      "Ġvibrant": 8900,
      "Ġsplit": 8901,
      "Ġrobust": 8902,
      "ĠTelegram": 8903,
      "Ġhesitate": 8904,
      "ĠÐ°Ð½Ð³Ð»Ð¸Ð¹": 8905,
      "));": 8906,
      "*.": 8907,
      "Ge": 8908,
      "KE": 8909,
      "Not": 8910,
      "Per": 8911,
      "PAD": 8912,
      "direct": 8913,
      "gent": 8914,
      "late": 8915,
      "mt": 8916,
      "target": 8917,
      "vis": 8918,
      "Íķ": 8919,
      "Ð¾ÑĢÐ°": 8920,
      "onents": 8921,
      "Ġcow": 8922,
      "ena": 8923,
      "Ġfrag": 8924,
      "Ġdied": 8925,
      "Ġhop": 8926,
      "Ġecos": 8927,
      "Ġyouth": 8928,
      "Ġrent": 8929,
      "ĠIT": 8930,
      "ama": 8931,
      "ulk": 8932,
      "unte": 8933,
      "Ġusername": 8934,
      "gend": 8935,
      "ĠCherry": 8936,
      "Ġhaz": 8937,
      "riors": 8938,
      "Ġvent": 8939,
      "estamp": 8940,
      "ĠPers": 8941,
      "Ð¾Ð»Ð½Ðµ": 8942,
      "ĠHuman": 8943,
      "Ġratio": 8944,
      "plex": 8945,
      "Ð³Ðµ": 8946,
      "Ð»Ð¸Ð±Ð¾": 8947,
      "ĠEven": 8948,
      "ĠÐ½Ð°ÑħÐ¾Ð´": 8949,
      "ĠFree": 8950,
      "ĠFlu": 8951,
      "ĠGe": 8952,
      "Ð¶ÐµÑĤ": 8953,
      "ĠÑĤÐ¸": 8954,
      "Ġque": 8955,
      "Ð¾Ð½Ð°Ð»ÑĮ": 8956,
      "duc": 8957,
      "Ġperception": 8958,
      "ĠÐ»Ð¾Ð¶": 8959,
      "ÑģÑĤÐ°Ð²Ð¸ÑĤÑĮ": 8960,
      "Input": 8961,
      "ĠÐ²ÑĭÐ±": 8962,
      "Ġempire": 8963,
      "ÑĦÐ°": 8964,
      "Ð¾ÐºÐ°ÑĢ": 8965,
      "phabet": 8966,
      "ĠState": 8967,
      "Ġsolved": 8968,
      "Ġrecover": 8969,
      "ÑĤÐµÐ»ÑĮÐ½ÑĭÐ¼": 8970,
      "Ġ2020": 8971,
      "Ġperforming": 8972,
      "Ġaccident": 8973,
      "Ġrealized": 8974,
      "ĠÐºÐ¾Ð½ÑĤÐµÐº": 8975,
      "Ġmarkets": 8976,
      "Ġdifficulty": 8977,
      "ĠExplain": 8978,
      "ĠShakespeare": 8979,
      "Ġcrim": 8980,
      "Ġpreference": 8981,
      "Ġinvestors": 8982,
      "appro": 8983,
      "ometimes": 8984,
      "ÑĤÐ¸ÑĩÐµÑģÐºÐ¸": 8985,
      "ĠÑģÐ°Ð¼ÑĭÑħ": 8986,
      "Ġpaste": 8987,
      "Ġ&&": 8988,
      "Ġaccounts": 8989,
      "Ġrocket": 8990,
      "Ġrobots": 8991,
      "Ġdebt": 8992,
      "ĠÐ²Ð¾Ð·Ð¼Ð¾Ð¶Ð½Ð¾ÑģÑĤÑĮ": 8993,
      "Ġjournal": 8994,
      "Ġcleaning": 8995,
      "ĠÑĦÑĥÐ½ÐºÑĨÐ¸Ð¸": 8996,
      "oelectric": 8997,
      "ĠÐ¾ÑĤÐ½Ð¾ÑģÐ¸": 8998,
      "Ġclaims": 8999,
      "Ġvillage": 9000,
      "ĠInternet": 9001,
      "ĊĠĠĠĠĠĠĠĠĠĠĠĠĠĠĠĠĠĠĠ": 9002,
      "ĠPyTorch": 9003,
      "Ġopinion": 9004,
      "Okay": 9005,
      "Subject": 9006,
      "Ġreplaced": 9007,
      "Ġtrigger": 9008,
      "Ġcinema": 9009,
      "ĠÑģÐ»ÐµÐ´ÑĥÐµÑĤ": 9010,
      "rogen": 9011,
      "Ġyeast": 9012,
      "ĠÑĪÐ¸ÑĢÐ¾Ðº": 9013,
      "Ġrhyth": 9014,
      "Ġloved": 9015,
      "Ġmolecules": 9016,
      "ĠÐ²Ð½ÐµÑĪ": 9017,
      "Ġversatile": 9018,
      "ĠÑģÐºÐ°Ð·Ð°ÑĤÑĮ": 9019,
      "Ġfabric": 9020,
      "ĠHitler": 9021,
      "ĠÐ¿ÑĢÐ¾ÑĦÐµÑģÑģÐ¸": 9022,
      "Ġecosystem": 9023,
      "'.": 9024,
      "500": 9025,
      "DP": 9026,
      "IP": 9027,
      "Id": 9028,
      "bar": 9029,
      "ek": 9030,
      "gans": 9031,
      "grid": 9032,
      "pred": 9033,
      "sin": 9034,
      "ï¸": 9035,
      "Ġsan": 9036,
      "orking": 9037,
      "iture": 9038,
      "itutions": 9039,
      "Ġfridge": 9040,
      "Ġboy": 9041,
      "Ġbatch": 9042,
      "Ð½Ñİ": 9043,
      "Ġdiction": 9044,
      "Ġloyal": 9045,
      "ented": 9046,
      "Ġnu": 9047,
      "idity": 9048,
      "uning": 9049,
      "ĠÑģÐµÐ¼": 9050,
      "ĠAG": 9051,
      "search": 9052,
      "ady": 9053,
      "ÐµÐ½Ð½ÑĭÐµ": 9054,
      "ĠCarbon": 9055,
      "Ð¿Ñĭ": 9056,
      "Ð¿Ð¾Ñĩ": 9057,
      "Ġhaven": 9058,
      "Ġ()": 9059,
      "ĠPat": 9060,
      "ptic": 9061,
      "ÑĢÐµÐ¶": 9062,
      "Ġcha": 9063,
      "Ġimaging": 9064,
      "ĠMountain": 9065,
      "Ð³ÑĢÐ°": 9066,
      "Ġ180": 9067,
      "Ġdoors": 9068,
      "Ð¾Ð³ÑĢÐ°ÑĦÐ¸": 9069,
      "ĠDec": 9070,
      "ĠEy": 9071,
      "ĠFre": 9072,
      "ĠÐ±ÐµÐ»": 9073,
      "agon": 9074,
      "Ġotherwise": 9075,
      "Ġunw": 9076,
      "formed": 9077,
      "ÑģÐºÐ¸Ðµ": 9078,
      "ĠNetwork": 9079,
      "ĠNULL": 9080,
      "ÑĤÐ¸ÑĤÑĮÑģÑı": 9081,
      "âĢľ": 9082,
      "acon": 9083,
      "Ġ32": 9084,
      "Ġamb": 9085,
      "Ġamaz": 9086,
      "ĠÐ·Ð°Ð¿Ñĥ": 9087,
      "ĠÐ¿ÑĢÐ¸Ð½ÑĨÐ¸": 9088,
      "Ð¾ÐºÑĥ": 9089,
      "ĠÐ¿Ð¾ÑģÐºÐ¾Ð»ÑĮÐºÑĥ": 9090,
      "Ġbund": 9091,
      "ĠStand": 9092,
      "ĠÑĤÐµÐ¿ÐµÑĢÑĮ": 9093,
      "Ġdefines": 9094,
      "Ġinference": 9095,
      "Ġlongest": 9096,
      "inese": 9097,
      "ĠChina": 9098,
      "gorithm": 9099,
      "Ġdecor": 9100,
      "Ġsteel": 9101,
      "Ġrealize": 9102,
      "ĠÐ¸ÑģÐ¿Ð¾Ð»ÑĮÐ·ÑĥÑİÑĤÑģÑı": 9103,
      "Ġsupported": 9104,
      "Ġimprovements": 9105,
      "Ġgrows": 9106,
      "netic": 9107,
      "ĠCommun": 9108,
      "Ġanalog": 9109,
      "Ġslice": 9110,
[...]
